{
  "version": "1.0",
  "truncation": null,
  "padding": null,
  "added_tokens": [
    {
      "id": 0,
      "content": "<s>",
      "single_word": false,
      "lstrip": false,
      "rstrip": false,
      "normalized": false,
      "special": true
    },
    {
      "id": 1,
      "content": "<pad>",
      "single_word": false,
      "lstrip": false,
      "rstrip": false,
      "normalized": false,
      "special": true
    },
    {
      "id": 2,
      "content": "</s>",
      "single_word": false,
      "lstrip": false,
      "rstrip": false,
      "normalized": false,
      "special": true
    },
    {
      "id": 3,
      "content": "<unk>",
      "single_word": false,
      "lstrip": false,
      "rstrip": false,
      "normalized": false,
      "special": true
    },
    {
      "id": 4,
      "content": "<mask>",
      "single_word": false,
      "lstrip": false,
      "rstrip": false,
      "normalized": false,
      "special": true
    },
    {
      "id": 5,
      "content": "<RIG>",
      "single_word": false,
      "lstrip": false,
      "rstrip": false,
      "normalized": false,
      "special": true
    },
    {
      "id": 6,
      "content": "<YAJUR>",
      "single_word": false,
      "lstrip": false,
      "rstrip": false,
      "normalized": false,
      "special": true
    },
    {
      "id": 7,
      "content": "<ATHARVA>",
      "single_word": false,
      "lstrip": false,
      "rstrip": false,
      "normalized": false,
      "special": true
    },
    {
      "id": 8,
      "content": "<SAM>",
      "single_word": false,
      "lstrip": false,
      "rstrip": false,
      "normalized": false,
      "special": true
    },
    {
      "id": 9,
      "content": "<eos>",
      "single_word": false,
      "lstrip": false,
      "rstrip": false,
      "normalized": false,
      "special": true
    }
  ],
  "normalizer": {
    "type": "Sequence",
    "normalizers": [
      {
        "type": "NFKC"
      }
    ]
  },
  "pre_tokenizer": {
    "type": "Metaspace",
    "replacement": "▁",
    "prepend_scheme": "always",
    "split": true
  },
  "post_processor": {
    "type": "TemplateProcessing",
    "single": [
      {
        "Sequence": {
          "id": "A",
          "type_id": 0
        }
      }
    ],
    "pair": [
      {
        "Sequence": {
          "id": "A",
          "type_id": 0
        }
      },
      {
        "Sequence": {
          "id": "B",
          "type_id": 1
        }
      }
    ],
    "special_tokens": {}
  },
  "decoder": {
    "type": "Metaspace",
    "replacement": "▁",
    "prepend_scheme": "always",
    "split": true
  },
  "model": {
    "type": "Unigram",
    "unk_id": 3,
    "vocab": [
      [
        "<s>",
        0.0
      ],
      [
        "<pad>",
        0.0
      ],
      [
        "</s>",
        0.0
      ],
      [
        "<unk>",
        0.0
      ],
      [
        "<mask>",
        0.0
      ],
      [
        "<RIG>",
        0.0
      ],
      [
        "<YAJUR>",
        0.0
      ],
      [
        "<ATHARVA>",
        0.0
      ],
      [
        "<SAM>",
        0.0
      ],
      [
        "<eos>",
        0.0
      ],
      [
        "▁",
        -2.238026568726859
      ],
      [
        "<",
        -3.200056689205832
      ],
      [
        ">",
        -3.2000566892058337
      ],
      [
        "॒",
        -3.47991334053709
      ],
      [
        "॑",
        -3.804109840636407
      ],
      [
        "A",
        -3.8263992786616505
      ],
      [
        "R",
        -3.893216360553821
      ],
      [
        "e",
        -3.893216360553821
      ],
      [
        "o",
        -3.893216360553821
      ],
      [
        "॥",
        -3.893216360553821
      ],
      [
        "s",
        -3.893216360553821
      ],
      [
        "।",
        -3.9114688147326273
      ],
      [
        "ं",
        -4.458925971550039
      ],
      [
        "G",
        -4.547627209266279
      ],
      [
        "I",
        -4.547627209266279
      ],
      [
        "ः",
        -4.556409165321865
      ],
      [
        "ा",
        -5.021085249710072
      ],
      [
        "T",
        -5.115993014498105
      ],
      [
        "V",
        -5.1159930144981125
      ],
      [
        "H",
        -5.1159930144981125
      ],
      [
        "ो",
        -5.300461009393503
      ],
      [
        "म",
        -5.333691963827908
      ],
      [
        "म्",
        -5.387073448346399
      ],
      [
        "े",
        -5.389904344042799
      ],
      [
        "▁स",
        -5.521467535358752
      ],
      [
        "Y",
        -5.576353007351694
      ],
      [
        "U",
        -5.576353007351694
      ],
      [
        "J",
        -5.576353007351694
      ],
      [
        "▁अ",
        -5.58648690167484
      ],
      [
        "▁न",
        -5.6207594921727
      ],
      [
        "▁आ",
        -5.676944075456307
      ],
      [
        "▁प्र",
        -5.874573071800956
      ],
      [
        "ो॒",
        -5.887377533268156
      ],
      [
        "द",
        -5.889354091969008
      ],
      [
        "ं॒",
        -5.8955558287095
      ],
      [
        "ि",
        -5.9049473276268145
      ],
      [
        "र",
        -5.9350210229918785
      ],
      [
        "त",
        -5.95911001201803
      ],
      [
        "▁वि",
        -6.044481218204966
      ],
      [
        "य",
        -6.053731283657594
      ],
      [
        "त्",
        -6.054339093195566
      ],
      [
        "न",
        -6.091271024753845
      ],
      [
        "ा॒",
        -6.130999399180713
      ],
      [
        "ं॑",
        -6.1597843648684805
      ],
      [
        "व",
        -6.2367739427342626
      ],
      [
        "न्",
        -6.300278328519133
      ],
      [
        "ो॑",
        -6.438026301709377
      ],
      [
        "श",
        -6.459438459341011
      ],
      [
        "ा॑",
        -6.47570957970144
      ],
      [
        "प",
        -6.488427582547034
      ],
      [
        "मा",
        -6.509387281306944
      ],
      [
        "ी",
        -6.560336145659083
      ],
      [
        "्",
        -6.576253149476373
      ],
      [
        "ु",
        -6.590659110339301
      ],
      [
        "े॒",
        -6.616301194690493
      ],
      [
        "▁मा",
        -6.62985493380558
      ],
      [
        "▁य",
        -6.662921079135597
      ],
      [
        "▁च",
        -6.66295508871411
      ],
      [
        "ः॑",
        -6.6671318961087085
      ],
      [
        "े॑",
        -6.681735699099516
      ],
      [
        "स",
        -6.692637433405767
      ],
      [
        "द्",
        -6.701036034296116
      ],
      [
        "ज",
        -6.714706011901263
      ],
      [
        "ति",
        -6.718140798306027
      ],
      [
        "र्",
        -6.724564172818648
      ],
      [
        "ह",
        -6.762405685213623
      ],
      [
        "क्ष",
        -6.772979730724641
      ],
      [
        "▁नि",
        -6.80500452054995
      ],
      [
        "▁सं",
        -6.808038517753799
      ],
      [
        "ध",
        -6.814725818566377
      ],
      [
        "ष",
        -6.817818069412194
      ],
      [
        "ते",
        -6.826162128064456
      ],
      [
        "व॑",
        -6.829208391111954
      ],
      [
        "भ",
        -6.829401361150048
      ],
      [
        "▁यो",
        -6.839481693309913
      ],
      [
        "ग",
        -6.842637519874274
      ],
      [
        "▁त्वा",
        -6.843880819270167
      ],
      [
        "▁ते",
        -6.863344773326623
      ],
      [
        "▁ये",
        -6.86632458385751
      ],
      [
        "स्य",
        -6.894571319398933
      ],
      [
        "म॑",
        -6.915171633888698
      ],
      [
        "स्त",
        -6.923955597453844
      ],
      [
        "ऽ",
        -6.9487400478947485
      ],
      [
        "क",
        -6.962239982766174
      ],
      [
        "तु",
        -6.963032272745136
      ],
      [
        "▁क",
        -6.971314364906717
      ],
      [
        "॑म्",
        -6.981479546117881
      ],
      [
        "ता",
        -6.985902567008659
      ],
      [
        "॒म",
        -6.9912038818947115
      ],
      [
        "ाः",
        -6.9937965593195495
      ],
      [
        "ण",
        -7.02531696911116
      ],
      [
        "▁दे॒वा",
        -7.032656037614764
      ],
      [
        "▁या",
        -7.0533443112205205
      ],
      [
        "▁स्वाहा॑",
        -7.074194509888335
      ],
      [
        "▁नो॑",
        -7.07647786389799
      ],
      [
        "त॒",
        -7.086880589787846
      ],
      [
        "▁सु",
        -7.098209035292575
      ],
      [
        "ू",
        -7.111124656313875
      ],
      [
        "व॒",
        -7.119410990443618
      ],
      [
        "ि॒",
        -7.120914382601811
      ],
      [
        "य॑",
        -7.121091362892459
      ],
      [
        "न्न",
        -7.138454979836659
      ],
      [
        "ौ",
        -7.1546523041377785
      ],
      [
        "स्य॒",
        -7.157929401129777
      ],
      [
        "▁त",
        -7.162101894593352
      ],
      [
        "सा",
        -7.170481429356658
      ],
      [
        "▁च॒",
        -7.189188495010153
      ],
      [
        "▁हि",
        -7.190223627928395
      ],
      [
        "▁ते॒",
        -7.221358921244965
      ],
      [
        "रु",
        -7.222608057047988
      ],
      [
        "▁मे",
        -7.223223960095403
      ],
      [
        "स्य॑",
        -7.226753110015067
      ],
      [
        "ᳪ",
        -7.234574013660696
      ],
      [
        "श्च",
        -7.237413833187297
      ],
      [
        "",
        -7.248662645726662
      ],
      [
        "च",
        -7.253771594066109
      ],
      [
        "या",
        -7.260901883114474
      ],
      [
        "्य",
        -7.26395488504552
      ],
      [
        "र॑",
        -7.264566038665388
      ],
      [
        "सि",
        -7.269673701969553
      ],
      [
        "र्व",
        -7.27122585037285
      ],
      [
        "ति॒",
        -7.277069696304579
      ],
      [
        "वि",
        -7.277174330961617
      ],
      [
        "▁व",
        -7.279149071319676
      ],
      [
        "थ",
        -7.30865285645931
      ],
      [
        "▁त्वं",
        -7.319790180028139
      ],
      [
        "▁च॑",
        -7.325096708598908
      ],
      [
        "▁स्व",
        -7.327739043748406
      ],
      [
        "ना",
        -7.329554246201023
      ],
      [
        "स्व",
        -7.331115153605219
      ],
      [
        "▁अ॑",
        -7.334914430660189
      ],
      [
        "च्छ",
        -7.3387915540761295
      ],
      [
        "य॒",
        -7.366848377239116
      ],
      [
        "म॒",
        -7.368391065236962
      ],
      [
        "॑म",
        -7.393627972569826
      ],
      [
        "▁नः",
        -7.399209049328449
      ],
      [
        "रा",
        -7.399245295080386
      ],
      [
        "॒मा",
        -7.40615276610391
      ],
      [
        "▁ते॑",
        -7.408048410599319
      ],
      [
        "▁परि॑",
        -7.408446155544875
      ],
      [
        "ै",
        -7.414339409320237
      ],
      [
        "▁श",
        -7.422880653090576
      ],
      [
        "ष्ट",
        -7.43504333516132
      ],
      [
        "त्य",
        -7.443240397597022
      ],
      [
        "▁सु॒",
        -7.4529227228227395
      ],
      [
        "प्र",
        -7.455524867521963
      ],
      [
        "प॑",
        -7.458050833559043
      ],
      [
        "ु॑",
        -7.462838092239009
      ],
      [
        "▁वा",
        -7.471699557692934
      ],
      [
        "दि",
        -7.477914402206703
      ],
      [
        "या॑",
        -7.495873763826272
      ],
      [
        "ृ",
        -7.498050025801922
      ],
      [
        "ते॒",
        -7.504612241899752
      ],
      [
        "मि",
        -7.509595698638564
      ],
      [
        "▁नो॒",
        -7.517654595253105
      ],
      [
        "▁तं",
        -7.524056769136528
      ],
      [
        "्या",
        -7.536780296316579
      ],
      [
        "हि",
        -7.546796040989291
      ],
      [
        "▁प",
        -7.548485706619157
      ],
      [
        "ोऽ",
        -7.553978304518516
      ],
      [
        "▁उ॒त",
        -7.564234788343602
      ],
      [
        "न्त",
        -7.580481212922336
      ],
      [
        "▁मे॒",
        -7.592098101320487
      ],
      [
        "ाय॒",
        -7.596946859626182
      ],
      [
        "ाय॑",
        -7.604265221215901
      ],
      [
        "▁दे॒व",
        -7.611259715697076
      ],
      [
        "▁अ॒भि",
        -7.612514327613053
      ],
      [
        "ि॑",
        -7.6135531778412435
      ],
      [
        "▁यत्",
        -7.618820737643234
      ],
      [
        "▁त्वा॒",
        -7.636064390275656
      ],
      [
        "र्य",
        -7.636851145457119
      ],
      [
        "वा",
        -7.641757316692998
      ],
      [
        "ब",
        -7.651757023104562
      ],
      [
        "मु",
        -7.652689684018878
      ],
      [
        "क्",
        -7.653551498476809
      ],
      [
        "▁नो",
        -7.661286142894866
      ],
      [
        "नि",
        -7.662869006131159
      ],
      [
        "▁ता",
        -7.668709187649278
      ],
      [
        "रि",
        -7.673302773331634
      ],
      [
        "▁अ॒ग्नि",
        -7.68159023847844
      ],
      [
        "▁न॑",
        -7.689196291311906
      ],
      [
        "॒न्",
        -7.7053655477938
      ],
      [
        "▁अ॒",
        -7.71156023786632
      ],
      [
        "न॒",
        -7.714907627820795
      ],
      [
        "▁यद",
        -7.71741419646688
      ],
      [
        "ना॒",
        -7.7188745264684755
      ],
      [
        "ल",
        -7.728416809689033
      ],
      [
        "पा",
        -7.739407259187808
      ],
      [
        "या॒",
        -7.741174854844841
      ],
      [
        "ना॑",
        -7.748553965718555
      ],
      [
        "र्म",
        -7.748645040739985
      ],
      [
        "▁यद्",
        -7.748968118277141
      ],
      [
        "न॑",
        -7.758173631580591
      ],
      [
        "भि",
        -7.761663760797348
      ],
      [
        "रे",
        -7.7668895540249885
      ],
      [
        "॒द्",
        -7.767742424584531
      ],
      [
        "▁इन्द्र",
        -7.768566864937642
      ],
      [
        "भि॒",
        -7.7792457406923905
      ],
      [
        "षा",
        -7.784098419263011
      ],
      [
        "तं",
        -7.786471343731337
      ],
      [
        "्व",
        -7.791322047042357
      ],
      [
        "ान्",
        -7.792886823483193
      ],
      [
        "ी॒",
        -7.79406633509284
      ],
      [
        "व्य",
        -7.802291055792814
      ],
      [
        "॒र",
        -7.80337875243298
      ],
      [
        "॑र",
        -7.804976839224694
      ],
      [
        "ु॒",
        -7.806610705228262
      ],
      [
        "▁व॒यं",
        -7.807189052094134
      ],
      [
        "▁त्वा॑",
        -7.817315733462268
      ],
      [
        "॑व",
        -7.820129581570042
      ],
      [
        "क्र",
        -7.829586603631851
      ],
      [
        "त्र",
        -7.835007525482018
      ],
      [
        "ती",
        -7.83950803684261
      ],
      [
        "ष्व",
        -7.843247190331665
      ],
      [
        "भिः",
        -7.843749311114808
      ],
      [
        "द॑",
        -7.846529937467068
      ],
      [
        "ति॑",
        -7.852437802633677
      ],
      [
        "▁प्रति॑",
        -7.853172089185719
      ],
      [
        "▁सा",
        -7.856856277381848
      ],
      [
        "त्त",
        -7.8577632286402
      ],
      [
        "न्ति",
        -7.86913847614614
      ],
      [
        "क्त",
        -7.872202373607187
      ],
      [
        "तु॒",
        -7.876870280013475
      ],
      [
        "श्च॒",
        -7.878963209320644
      ],
      [
        "त्स",
        -7.880555630811822
      ],
      [
        "▁यं",
        -7.881334361041975
      ],
      [
        "श्व",
        -7.882761772630298
      ],
      [
        "▁स्वाहा॒",
        -7.883495565371613
      ],
      [
        "न्तु",
        -7.884615969959254
      ],
      [
        "ा॑य",
        -7.8891969711980146
      ],
      [
        "से",
        -7.906366512687835
      ],
      [
        "न्व",
        -7.906642457742147
      ],
      [
        "▁गो",
        -7.910153559673439
      ],
      [
        "मृ",
        -7.911393496058185
      ],
      [
        "स॒",
        -7.926753795958221
      ],
      [
        "▁शं",
        -7.937186264839587
      ],
      [
        "▁इ",
        -7.940282286631528
      ],
      [
        "वृ",
        -7.943018725495068
      ],
      [
        "॒व",
        -7.945988942512272
      ],
      [
        "▁विश्वे॑",
        -7.947971684478342
      ],
      [
        "▁ज",
        -7.951179217294272
      ],
      [
        "॒रा",
        -7.952220386896933
      ],
      [
        "▁उ",
        -7.963367501572553
      ],
      [
        "र॒",
        -7.963609735846194
      ],
      [
        "॒त्",
        -7.967608460882089
      ],
      [
        "ता॒",
        -7.968287237327862
      ],
      [
        "ष्य",
        -7.9741297499494195
      ],
      [
        "▁ग",
        -7.980346360973088
      ],
      [
        "तो॒",
        -7.985630924836583
      ],
      [
        "न्द",
        -7.985708867648097
      ],
      [
        "॒र्",
        -7.9931101232405295
      ],
      [
        "नु",
        -7.993841748082477
      ],
      [
        "▁न॒",
        -7.999578428950415
      ],
      [
        "॒श",
        -8.000748512929672
      ],
      [
        "प॒",
        -8.00112776771768
      ],
      [
        "घ",
        -8.001835346170719
      ],
      [
        "ध्य",
        -8.003203279156676
      ],
      [
        "▁सोम",
        -8.004978415997835
      ],
      [
        "ाय",
        -8.005596742568141
      ],
      [
        "▁प्रा",
        -8.017931335069445
      ],
      [
        "भि॑",
        -8.019370949698594
      ],
      [
        "॒य",
        -8.021006425050821
      ],
      [
        "▁इन्द्र॒",
        -8.021346273869852
      ],
      [
        "न्ति॒",
        -8.022352946625709
      ],
      [
        "ग्",
        -8.022786309514213
      ],
      [
        "यो॒",
        -8.02308935617549
      ],
      [
        "धि",
        -8.031242306987226
      ],
      [
        "ह्य",
        -8.036485160634477
      ],
      [
        "यो",
        -8.038012893810837
      ],
      [
        "श्च॑",
        -8.04071542308552
      ],
      [
        "सो",
        -8.04775239016574
      ],
      [
        "ध्व",
        -8.049117489987555
      ],
      [
        "न्य",
        -8.050864121900776
      ],
      [
        "नो",
        -8.05543087085669
      ],
      [
        "नी",
        -8.05806446610543
      ],
      [
        "ू॒",
        -8.0584406007998
      ],
      [
        "तः",
        -8.062449975362117
      ],
      [
        "▁स॒प्त",
        -8.0656972164803
      ],
      [
        "ग्र",
        -8.073298453992713
      ],
      [
        "तो",
        -8.09057113633753
      ],
      [
        "ळ",
        -8.092863723845326
      ],
      [
        "सो॒",
        -8.093030918743668
      ],
      [
        "त॑",
        -8.093120883393302
      ],
      [
        "॑स्य",
        -8.093827099793767
      ],
      [
        "॒स्त",
        -8.102218803298449
      ],
      [
        "॒ता",
        -8.107114183988964
      ],
      [
        "▁विश्वा॑",
        -8.124523214242192
      ],
      [
        "▁स॒ह",
        -8.126695860994225
      ],
      [
        "▁प्र॒जा",
        -8.139801933036974
      ],
      [
        "ने",
        -8.141134709863842
      ],
      [
        "स्प",
        -8.141604134535328
      ],
      [
        "दा",
        -8.146373292012829
      ],
      [
        "॒दा",
        -8.147717546195931
      ],
      [
        "सि॒",
        -8.159055881031975
      ],
      [
        "▁देव",
        -8.165582419769482
      ],
      [
        "▁उप॑",
        -8.170574010471064
      ],
      [
        "▁गा",
        -8.181410200383429
      ],
      [
        "वि॑",
        -8.185889222987582
      ],
      [
        "ाँ",
        -8.1896503570272
      ],
      [
        "न्त्य",
        -8.191779292009969
      ],
      [
        "धा",
        -8.197776870379183
      ],
      [
        "र्ण",
        -8.200638498882856
      ],
      [
        "नु॒",
        -8.201385008754198
      ],
      [
        "नि॒",
        -8.202874914194279
      ],
      [
        "र्ध",
        -8.203760879829602
      ],
      [
        "नु॑",
        -8.204651494827516
      ],
      [
        "॒द",
        -8.205869032007767
      ],
      [
        "स्तु",
        -8.207789379448347
      ],
      [
        "ू॑",
        -8.20976159931105
      ],
      [
        "ैः",
        -8.215540738437621
      ],
      [
        "▁परि॒",
        -8.216222821281509
      ],
      [
        "नि॑",
        -8.219934813941087
      ],
      [
        "ेन॑",
        -8.225642802619344
      ],
      [
        "्म",
        -8.22995647485585
      ],
      [
        "▁दि॒वो",
        -8.23751906713906
      ],
      [
        "री",
        -8.237683371738868
      ],
      [
        "ञ्ज",
        -8.238787909255759
      ],
      [
        "षु",
        -8.23899772071874
      ],
      [
        "▁चा",
        -8.25103530072499
      ],
      [
        "▁ह",
        -8.25126221548014
      ],
      [
        "मे",
        -8.252082762994231
      ],
      [
        "▁मे॑",
        -8.252134290997336
      ],
      [
        "▁यः",
        -8.254071241668008
      ],
      [
        "▁दि॒व",
        -8.254082771435069
      ],
      [
        "॒वा",
        -8.258190701287292
      ],
      [
        "▁पृथि॒वी",
        -8.259281925381284
      ],
      [
        "सी",
        -8.259692753165343
      ],
      [
        "▁सोम॑",
        -8.25979520465569
      ],
      [
        "▁इन्द्र॑",
        -8.260954138930444
      ],
      [
        "▁सु॒त",
        -8.269951022539708
      ],
      [
        "वी",
        -8.271016636684985
      ],
      [
        "▁स्थ",
        -8.27111726154127
      ],
      [
        "था",
        -8.271929056117791
      ],
      [
        "र्न",
        -8.272433925238898
      ],
      [
        "▁उ॒",
        -8.274407894315175
      ],
      [
        "सः",
        -8.280663494807047
      ],
      [
        "॒या",
        -8.282925168170756
      ],
      [
        "रा॑",
        -8.287787680697162
      ],
      [
        "ा॒न",
        -8.289410548053667
      ],
      [
        "र्ज",
        -8.289826082681072
      ],
      [
        "ाव",
        -8.291746695164749
      ],
      [
        "जा",
        -8.291778877988543
      ],
      [
        "▁विश्वा॒",
        -8.292943930420693
      ],
      [
        "ी॑",
        -8.294076871866793
      ],
      [
        "॒पा",
        -8.296022026279177
      ],
      [
        "▁वा॒",
        -8.29690224870275
      ],
      [
        "▁ना",
        -8.29788986955952
      ],
      [
        "णा",
        -8.299750721655954
      ],
      [
        "वा॒",
        -8.30247414546855
      ],
      [
        "▁पृथि॒व्या",
        -8.303380691996926
      ],
      [
        "॑श्च",
        -8.304087922483463
      ],
      [
        "▁अ॒य",
        -8.304924613188213
      ],
      [
        "॑श",
        -8.307154962221553
      ],
      [
        "▁नमो॑",
        -8.30793775045876
      ],
      [
        "रो",
        -8.3126250999641
      ],
      [
        "्यु",
        -8.313306158654893
      ],
      [
        "णी",
        -8.320754284417905
      ],
      [
        "॒न्न",
        -8.322513599850083
      ],
      [
        "जि",
        -8.322616367721473
      ],
      [
        "स्थ",
        -8.323179417097052
      ],
      [
        "ङ्ग",
        -8.33327481132329
      ],
      [
        "िष",
        -8.333431572352179
      ],
      [
        "▁ब",
        -8.336177388513157
      ],
      [
        "वि॒",
        -8.337391992916253
      ],
      [
        "▁ऋ",
        -8.338095920370087
      ],
      [
        "ङ्",
        -8.341261904230414
      ],
      [
        "॒ती",
        -8.341683649792262
      ],
      [
        "वो॒",
        -8.341686294701656
      ],
      [
        "मा॑",
        -8.342053235320442
      ],
      [
        "च्य",
        -8.342320568215628
      ],
      [
        "द्र",
        -8.350878431843377
      ],
      [
        "ै॑",
        -8.360805536685112
      ],
      [
        "द्य",
        -8.361853120886499
      ],
      [
        "▁इ॒द",
        -8.361932209619237
      ],
      [
        "ां",
        -8.365570356153611
      ],
      [
        "▁तद्",
        -8.366728851042833
      ],
      [
        "तं॒",
        -8.369404587260732
      ],
      [
        "द्व",
        -8.370981320910207
      ],
      [
        "्या॑",
        -8.371284041813752
      ],
      [
        "▁यु॒व",
        -8.372969495094228
      ],
      [
        "त्व",
        -8.383731758479751
      ],
      [
        "▁त्व",
        -8.384389333758802
      ],
      [
        "वा॑",
        -8.386145684454247
      ],
      [
        "▁ए॒ष",
        -8.387751242431548
      ],
      [
        "ह॑",
        -8.38986059482124
      ],
      [
        "▁ए",
        -8.393877378027955
      ],
      [
        "धे",
        -8.396493435442217
      ],
      [
        "ये",
        -8.403031002711534
      ],
      [
        "॑ति",
        -8.404877339904559
      ],
      [
        "यो॑",
        -8.405182870524817
      ],
      [
        "ष्ठ",
        -8.405969046671299
      ],
      [
        "न्द्र",
        -8.406457465020129
      ],
      [
        "▁य॒ज्ञं",
        -8.407735167727129
      ],
      [
        "रि॒",
        -8.408523164132266
      ],
      [
        "यन्त",
        -8.408945144045841
      ],
      [
        "स्या",
        -8.41074225353131
      ],
      [
        "मी",
        -8.414496185828252
      ],
      [
        "दी",
        -8.417194602785987
      ],
      [
        "▁ई",
        -8.417585957550118
      ],
      [
        "मि॒",
        -8.418213316875782
      ],
      [
        "ख",
        -8.420056648259411
      ],
      [
        "गा",
        -8.42014676228288
      ],
      [
        "सु",
        -8.423991553975366
      ],
      [
        "ज॑",
        -8.425216577189678
      ],
      [
        "▁तम",
        -8.426478374258199
      ],
      [
        "▁यथा॑",
        -8.426763058108719
      ],
      [
        "▁दे॒वो",
        -8.4329699560316
      ],
      [
        "रु॑",
        -8.442872135411617
      ],
      [
        "॒यं",
        -8.444221691789497
      ],
      [
        "र्द",
        -8.447181199302541
      ],
      [
        "ड",
        -8.44807848124756
      ],
      [
        "स्ते",
        -8.458700660789159
      ],
      [
        "मु॒",
        -8.459671485874619
      ],
      [
        "ुः",
        -8.45996917971343
      ],
      [
        "प्",
        -8.462623879931911
      ],
      [
        "▁अ॒स्य",
        -8.46482443297612
      ],
      [
        "॒स्य",
        -8.467200746061424
      ],
      [
        "कृ",
        -8.471657271390391
      ],
      [
        "रा॒",
        -8.47606347460702
      ],
      [
        "▁द्यावा॑पृथि॒वी",
        -8.477530659402369
      ],
      [
        "॑न्",
        -8.47787034114053
      ],
      [
        "॒तो",
        -8.479919250632896
      ],
      [
        "▁भू",
        -8.480334009894946
      ],
      [
        "स॑",
        -8.481855411122623
      ],
      [
        "षि",
        -8.48242763218824
      ],
      [
        "॒त",
        -8.48480352161684
      ],
      [
        "▁य॒ज्ञ",
        -8.485397903568957
      ],
      [
        "▁उ॑",
        -8.486319228688874
      ],
      [
        "ेन॒",
        -8.490962864043858
      ],
      [
        "तम्",
        -8.495351199415154
      ],
      [
        "▁दि॒वि",
        -8.495611920493069
      ],
      [
        "▁व॑",
        -8.496641049948611
      ],
      [
        "▁सम",
        -8.49768878540403
      ],
      [
        "्या॒",
        -8.502302116581124
      ],
      [
        "▁भव",
        -8.504014199005418
      ],
      [
        "त्रा",
        -8.505254241807034
      ],
      [
        "▁भर",
        -8.505697834047227
      ],
      [
        "सा॒",
        -8.506790812600249
      ],
      [
        "स्",
        -8.509075561152347
      ],
      [
        "मि॑",
        -8.510567269468934
      ],
      [
        "न्त॒",
        -8.521774988239365
      ],
      [
        "▁स॒त्य",
        -8.522554933789323
      ],
      [
        "▁ए॒वा",
        -8.52613363996144
      ],
      [
        "न्ध",
        -8.527492093894928
      ],
      [
        "▁वा॑",
        -8.528556491003872
      ],
      [
        "▁त॑",
        -8.52921643269202
      ],
      [
        "॒ना",
        -8.532106549131726
      ],
      [
        "▁दे॒वानां",
        -8.533300649457107
      ],
      [
        "▁कु",
        -8.536187122893821
      ],
      [
        "ामि",
        -8.539258492007344
      ],
      [
        "▁इ॒म",
        -8.540710609510802
      ],
      [
        "▁वो॒",
        -8.540746026427009
      ],
      [
        "र्ष",
        -8.543485077493862
      ],
      [
        "ु॒ष",
        -8.544157454342248
      ],
      [
        "तृ",
        -8.544444667678203
      ],
      [
        "▁इ॒मा",
        -8.545355369793214
      ],
      [
        "▁अ॒स्म",
        -8.55286727738916
      ],
      [
        "े॑षु",
        -8.554150580145558
      ],
      [
        "ष्ण",
        -8.554567879068044
      ],
      [
        "ण्य",
        -8.55598490782851
      ],
      [
        "▁अग्ने॒",
        -8.558157254413619
      ],
      [
        "▁अनु॑",
        -8.55918240399857
      ],
      [
        "न्तु॒",
        -8.560055702982087
      ],
      [
        "न्त्स",
        -8.561256159932316
      ],
      [
        "े॑न",
        -8.562876784808495
      ],
      [
        "॑मान",
        -8.563922639071157
      ],
      [
        "॑न्त",
        -8.56816728180322
      ],
      [
        "्वा",
        -8.570261430110644
      ],
      [
        "वो॑",
        -8.57059955599956
      ],
      [
        "द्ध",
        -8.570784450501119
      ],
      [
        "ात्",
        -8.573916274549063
      ],
      [
        "म॒ग्नि",
        -8.574213304913078
      ],
      [
        "सं",
        -8.575586179948171
      ],
      [
        "त्या",
        -8.575971736315747
      ],
      [
        "▁सोम॒",
        -8.576692531392766
      ],
      [
        "णि",
        -8.587213517479176
      ],
      [
        "▁तेन",
        -8.587278024801257
      ],
      [
        "स्त्वा",
        -8.591549990380232
      ],
      [
        "▁व्य",
        -8.591829671317647
      ],
      [
        "▁ए॒व",
        -8.592262754183949
      ],
      [
        "▁र॒यिं",
        -8.592594344609171
      ],
      [
        "▁सु॑",
        -8.594488520354531
      ],
      [
        "▁इ॒ह",
        -8.5945865883941
      ],
      [
        "▁भ॑र",
        -8.594695546582287
      ],
      [
        "दृ",
        -8.595322851007786
      ],
      [
        "ौ॑",
        -8.599594510422072
      ],
      [
        "रि॑",
        -8.600032460948395
      ],
      [
        "ेम",
        -8.601336332027397
      ],
      [
        "▁रोद॑सी",
        -8.602853213180385
      ],
      [
        "मा॑न",
        -8.605436000484271
      ],
      [
        "▁वो॑",
        -8.60566969035726
      ],
      [
        "नः",
        -8.60588886450341
      ],
      [
        "थे",
        -8.606791820328725
      ],
      [
        "▁यथा॒",
        -8.608469322459325
      ],
      [
        "र्ह",
        -8.612570588921631
      ],
      [
        "दु",
        -8.613396718092371
      ],
      [
        "य॑न्त",
        -8.615020067058364
      ],
      [
        "▁वै",
        -8.616220535672582
      ],
      [
        "दा॑",
        -8.617675048548591
      ],
      [
        "सृ",
        -8.620932382077502
      ],
      [
        "ध॑",
        -8.62335206127026
      ],
      [
        "ची",
        -8.624904197728638
      ],
      [
        "▁म॒",
        -8.625681928983507
      ],
      [
        "▁इव",
        -8.629034261265168
      ],
      [
        "स्व॒",
        -8.630039933125449
      ],
      [
        "▁प्रि॒य",
        -8.630917616457381
      ],
      [
        "॒न्त",
        -8.634801885701865
      ],
      [
        "शी",
        -8.637173759500147
      ],
      [
        "भि॑र्",
        -8.63775548086818
      ],
      [
        "▁वसु॑",
        -8.639568832423944
      ],
      [
        "ा॒य",
        -8.641767700212018
      ],
      [
        "▁दे॒वी",
        -8.643928820747377
      ],
      [
        "▁म॒ही",
        -8.644688921725068
      ],
      [
        "▁वे",
        -8.645090328348736
      ],
      [
        "▁ओ",
        -8.64589051750983
      ],
      [
        "ञ्च",
        -8.647384423567342
      ],
      [
        "ष्",
        -8.647509712833731
      ],
      [
        "▁वी॒र",
        -8.648804412271033
      ],
      [
        "▁तत्",
        -8.649718994710646
      ],
      [
        "▁लो॒क",
        -8.65085823912868
      ],
      [
        "का",
        -8.652704790885505
      ],
      [
        "▁शर्म॑",
        -8.659048200167252
      ],
      [
        "▁पु॒त्र",
        -8.65932951518386
      ],
      [
        "र्त",
        -8.660737007938328
      ],
      [
        "▁श्र",
        -8.662699659731707
      ],
      [
        "हि॒",
        -8.667191071540277
      ],
      [
        "॑स्य॒",
        -8.667362319447461
      ],
      [
        "ौ॒",
        -8.667958010788398
      ],
      [
        "॒हं",
        -8.66861818584318
      ],
      [
        "॒न्य",
        -8.671976908314193
      ],
      [
        "॒ह",
        -8.677810945680175
      ],
      [
        "▁श॒त",
        -8.679307286186273
      ],
      [
        "नो॒",
        -8.679581043300983
      ],
      [
        "धि॒",
        -8.6814115409091
      ],
      [
        "▁मि॒त्र",
        -8.683253669725028
      ],
      [
        "भा",
        -8.683739597495041
      ],
      [
        "के",
        -8.687448103377836
      ],
      [
        "नी॒",
        -8.689947114583585
      ],
      [
        "मु॒त",
        -8.690969327203245
      ],
      [
        "▁होता॑",
        -8.69152552473794
      ],
      [
        "▁मधु॑",
        -8.691545604789278
      ],
      [
        "ां॑सि",
        -8.69187815433225
      ],
      [
        "ता॑",
        -8.692493413671436
      ],
      [
        "न्तरि॑क्ष",
        -8.69805457208271
      ],
      [
        "वां॑",
        -8.702860296983284
      ],
      [
        "पि",
        -8.705129791744387
      ],
      [
        "णो",
        -8.706721746847538
      ],
      [
        "▁ब्रह्म॑",
        -8.708758744456748
      ],
      [
        "॒भि",
        -8.709451962112226
      ],
      [
        "गु",
        -8.709831508184394
      ],
      [
        "॑ना",
        -8.711820243611587
      ],
      [
        "▁इन्द्रो॑",
        -8.713194111399467
      ],
      [
        "▁परा॑",
        -8.716411322519358
      ],
      [
        "मन्",
        -8.718062675635455
      ],
      [
        "▁वृ॒त्र",
        -8.718709986470277
      ],
      [
        "स्र",
        -8.72073712684425
      ],
      [
        "वः",
        -8.724353455978871
      ],
      [
        "▁मि॒त्रो",
        -8.724392299121273
      ],
      [
        "ामि॒",
        -8.725309357128271
      ],
      [
        "▁सोम॑स्य",
        -8.725496798379103
      ],
      [
        "पश्य",
        -8.727981242586786
      ],
      [
        "ां॒",
        -8.730241197005745
      ],
      [
        "स्ता",
        -8.732657890581622
      ],
      [
        "ताम्",
        -8.735379261760848
      ],
      [
        "से॒",
        -8.738086434971319
      ],
      [
        "यस्य॑",
        -8.739367311182576
      ],
      [
        "ह॒",
        -8.742967029879225
      ],
      [
        "▁पर",
        -8.742981381694264
      ],
      [
        "॑य",
        -8.744685137296992
      ],
      [
        "▁नृ",
        -8.744711467849548
      ],
      [
        "▁ऋ॒त",
        -8.747471603678395
      ],
      [
        "भु",
        -8.747919721007605
      ],
      [
        "यः",
        -8.747936711059456
      ],
      [
        "धि॑",
        -8.749502308505846
      ],
      [
        "भ्यः",
        -8.750059835193944
      ],
      [
        "श्",
        -8.753773147218308
      ],
      [
        "दु॑",
        -8.75468917188781
      ],
      [
        "मु॑",
        -8.755777578304127
      ],
      [
        "▁उ॒भ",
        -8.756524037844018
      ],
      [
        "▁तस्य",
        -8.75689406365877
      ],
      [
        "▁दा",
        -8.757231481480908
      ],
      [
        "॒धा",
        -8.757376459400664
      ],
      [
        "हा",
        -8.758999881416187
      ],
      [
        "तां",
        -8.76123589325717
      ],
      [
        "▁प्रा॒ण",
        -8.762335675023946
      ],
      [
        "▁धा",
        -8.763286718733124
      ],
      [
        "▁इ॑व",
        -8.763694059402846
      ],
      [
        "सू",
        -8.76403226460631
      ],
      [
        "क्षि",
        -8.766183750486515
      ],
      [
        "▁इन्द्र॑स्य",
        -8.768010311421165
      ],
      [
        "▁व॒य",
        -8.768781256053476
      ],
      [
        "▁तद",
        -8.769007608414814
      ],
      [
        "▁कृ॒त",
        -8.769210081606216
      ],
      [
        "▁विश्व",
        -8.770206489122394
      ],
      [
        "षु॑",
        -8.771539650034807
      ],
      [
        "▁काम",
        -8.77483822317407
      ],
      [
        "श्न",
        -8.776155789461713
      ],
      [
        "▁नु",
        -8.776490532715023
      ],
      [
        "▁व॒",
        -8.776806654239648
      ],
      [
        "▁जन",
        -8.77742592875206
      ],
      [
        "▁तव॑",
        -8.777807935694472
      ],
      [
        "भि॒र",
        -8.781547050346784
      ],
      [
        "म॒भि",
        -8.781929187295706
      ],
      [
        "▁उद",
        -8.785489474085004
      ],
      [
        "॒द्य",
        -8.786049127195557
      ],
      [
        "पु",
        -8.78805114356016
      ],
      [
        "▁ह॒",
        -8.790984423045435
      ],
      [
        "ाद",
        -8.79227946402224
      ],
      [
        "स्मा",
        -8.79244881649509
      ],
      [
        "▁अस्तु",
        -8.795632840179003
      ],
      [
        "▁ध",
        -8.799522382874809
      ],
      [
        "ैर",
        -8.799715759828182
      ],
      [
        "▁वि॒श्व",
        -8.800714571276409
      ],
      [
        "▁शि",
        -8.80084982708729
      ],
      [
        "ह्व",
        -8.801335018630372
      ],
      [
        "▁पि॒ता",
        -8.804936431106434
      ],
      [
        "▁सवि॒ता",
        -8.805857362543984
      ],
      [
        "रं॒",
        -8.810977745927776
      ],
      [
        "रो॒",
        -8.81144160286581
      ],
      [
        "▁तप",
        -8.813128904406582
      ],
      [
        "▁भ॑व",
        -8.815073022292474
      ],
      [
        "▁इन्द्रा॑य",
        -8.815355506640401
      ],
      [
        "▁त्रि",
        -8.81609369269233
      ],
      [
        "र्भ",
        -8.81936057072716
      ],
      [
        "▁शा",
        -8.821137595233473
      ],
      [
        "ट्",
        -8.823361714193876
      ],
      [
        "त्सु",
        -8.8262161555458
      ],
      [
        "▁यच्छ",
        -8.827019757026209
      ],
      [
        "तो॑",
        -8.827238357934029
      ],
      [
        "▁स्वा",
        -8.82750870125695
      ],
      [
        "हे",
        -8.828068884146274
      ],
      [
        "ास॑",
        -8.82908757150264
      ],
      [
        "▁म॒ह",
        -8.831905323588284
      ],
      [
        "ि॒ता",
        -8.832340814117082
      ],
      [
        "ानि॑",
        -8.832500044768313
      ],
      [
        "▁स॒म",
        -8.83389686678456
      ],
      [
        "▁सोमं",
        -8.834022777054862
      ],
      [
        "ेऽ",
        -8.834789778282651
      ],
      [
        "पे",
        -8.835849619865733
      ],
      [
        "▁इन्द्रं",
        -8.835984481158935
      ],
      [
        "▁भ",
        -8.837339469645626
      ],
      [
        "▁सूर्य॑स्य",
        -8.838154471892956
      ],
      [
        "हु",
        -8.839014128936192
      ],
      [
        "॑सि",
        -8.839357514968178
      ],
      [
        "▁मा॑",
        -8.839445175678698
      ],
      [
        "चे",
        -8.842517992766261
      ],
      [
        "▁ए॒त",
        -8.842884920897518
      ],
      [
        "मिन्द्र",
        -8.843282120952733
      ],
      [
        "सि॑",
        -8.84370529014509
      ],
      [
        "▁मा॒",
        -8.843778920481435
      ],
      [
        "षु॒",
        -8.843990043834085
      ],
      [
        "ान",
        -8.845824285205486
      ],
      [
        "मनु॒",
        -8.847306868045198
      ],
      [
        "▁क॒वि",
        -8.847677374330562
      ],
      [
        "दे",
        -8.849187319209072
      ],
      [
        "▁सम॑",
        -8.85128027904986
      ],
      [
        "था॒",
        -8.852458276893465
      ],
      [
        "ष्ठा",
        -8.8530052742182
      ],
      [
        "॒ते",
        -8.853260563720308
      ],
      [
        "▁व॑ह",
        -8.853852537949486
      ],
      [
        "▁पृ",
        -8.853881368852473
      ],
      [
        "भव",
        -8.854047185751721
      ],
      [
        "स्त्व",
        -8.855595320615087
      ],
      [
        "॒मे",
        -8.857139722389704
      ],
      [
        "ये॑",
        -8.858663099654986
      ],
      [
        "▁समु॒द्र",
        -8.859373478585546
      ],
      [
        "▁नम॑",
        -8.859968859211714
      ],
      [
        "र्च",
        -8.867315068406839
      ],
      [
        "▁अग्ने",
        -8.869896561368584
      ],
      [
        "ग्ने॒",
        -8.870395714405696
      ],
      [
        "पि॑",
        -8.870553596125225
      ],
      [
        "ै॒",
        -8.870794677154308
      ],
      [
        "ला",
        -8.874109651555614
      ],
      [
        "▁नमः",
        -8.874275653030901
      ],
      [
        "पा॑",
        -8.87745031358981
      ],
      [
        "प्य",
        -8.877654888799272
      ],
      [
        "वे॑",
        -8.878420927408305
      ],
      [
        "स्त्रि",
        -8.87969102534188
      ],
      [
        "॑ते॒",
        -8.880465758233
      ],
      [
        "भि॒र्",
        -8.883622413436129
      ],
      [
        "्या॑य",
        -8.885070514366259
      ],
      [
        "ाम",
        -8.885874826847479
      ],
      [
        "ा॒ना",
        -8.888020615642779
      ],
      [
        "▁शु",
        -8.888319100304944
      ],
      [
        "▁वरु॑णस्य",
        -8.892237082817296
      ],
      [
        "मि॑न्द्र",
        -8.892604019264848
      ],
      [
        "श॑",
        -8.896390496526038
      ],
      [
        "वन्त",
        -8.89781783033764
      ],
      [
        "स्मै",
        -8.900218158740316
      ],
      [
        "िर",
        -8.904261271588302
      ],
      [
        "▁वी॒र्य",
        -8.90554828707326
      ],
      [
        "▁प्रति॒",
        -8.907531555797387
      ],
      [
        "्य॑",
        -8.909124693111355
      ],
      [
        "तां॒",
        -8.909523063410008
      ],
      [
        "जी",
        -8.910455001526056
      ],
      [
        "▁पु",
        -8.910910347514198
      ],
      [
        "ये॒",
        -8.911732928154585
      ],
      [
        "▁जु",
        -8.914251149593799
      ],
      [
        "▁जा॒त",
        -8.914354716286475
      ],
      [
        "यस्य॒",
        -8.916037147626712
      ],
      [
        "स्क",
        -8.916269981495745
      ],
      [
        "▁श॒तं",
        -8.917951835263892
      ],
      [
        "ण्व",
        -8.919294515803493
      ],
      [
        "▁मन॑",
        -8.920570311346722
      ],
      [
        "ग्न",
        -8.922982539064563
      ],
      [
        "▁उप॒",
        -8.923954675536624
      ],
      [
        "॑र्",
        -8.92438304233129
      ],
      [
        "▁वरु॑णो",
        -8.925024092195756
      ],
      [
        "▁ऽ",
        -8.925469484330609
      ],
      [
        "▁क्ष॒त्र",
        -8.92727755874877
      ],
      [
        "भिर",
        -8.929265046110054
      ],
      [
        "॒णा",
        -8.929472956000426
      ],
      [
        "द्धि",
        -8.931921767674108
      ],
      [
        "क्षि॒",
        -8.931987636441448
      ],
      [
        "▁रक्ष",
        -8.933038563158743
      ],
      [
        "▁दे॒वस्य॑",
        -8.933338422896329
      ],
      [
        "भ्यो॒",
        -8.93392629359726
      ],
      [
        "वो",
        -8.93632407049394
      ],
      [
        "ा॒व",
        -8.936783610430457
      ],
      [
        "▁नाम॑",
        -8.938531385449519
      ],
      [
        "वर्त",
        -8.938992559830272
      ],
      [
        "▁धन",
        -8.940307361725456
      ],
      [
        "▁प्रि॒या",
        -8.941037419113787
      ],
      [
        "॒मं",
        -8.942074871000177
      ],
      [
        "॑प",
        -8.942487553733695
      ],
      [
        "॑त्",
        -8.946778201472105
      ],
      [
        "▁पा",
        -8.949904140993675
      ],
      [
        "▁क्र",
        -8.9523605850326
      ],
      [
        "▁सर॑स्वती",
        -8.95240115713831
      ],
      [
        "▁अग्ने॑",
        -8.953221327386858
      ],
      [
        "▁अधि॑",
        -8.954031352098243
      ],
      [
        "जे",
        -8.954087142430918
      ],
      [
        "॒",
        -8.955925020104424
      ],
      [
        "ेण॑",
        -8.956844449565951
      ],
      [
        "▁वेद॑",
        -8.956930238560586
      ],
      [
        "धी",
        -8.958967163458144
      ],
      [
        "दु॒",
        -8.95957462836828
      ],
      [
        "थो॒",
        -8.960591642697098
      ],
      [
        "र्थ",
        -8.961458150317553
      ],
      [
        "▁सो",
        -8.961659536642404
      ],
      [
        "च्च",
        -8.962193601159719
      ],
      [
        "ँ",
        -8.963000685772986
      ],
      [
        "प्रा",
        -8.963650793147929
      ],
      [
        "ुर",
        -8.964936085713152
      ],
      [
        "वे॒",
        -8.96550273009382
      ],
      [
        "▁त्वम",
        -8.966421768512234
      ],
      [
        "ज्ज",
        -8.966768047402361
      ],
      [
        "▁तिष्ठ",
        -8.966932452414198
      ],
      [
        "भ्यां",
        -8.967077482973764
      ],
      [
        "ा॑य॒",
        -8.967171944658695
      ],
      [
        "भ्र",
        -8.96735907390637
      ],
      [
        "▁वृष॒भ",
        -8.96939811008683
      ],
      [
        "वां॒",
        -8.970679227983418
      ],
      [
        "दा॒",
        -8.970830250505413
      ],
      [
        "नं॒",
        -8.971572773363288
      ],
      [
        "दे॑व",
        -8.97246982575697
      ],
      [
        "धू",
        -8.972905413659173
      ],
      [
        "षे",
        -8.972992069960458
      ],
      [
        "श्र",
        -8.97319095181417
      ],
      [
        "▁पु॒रा",
        -8.9738043713992
      ],
      [
        "▁वस",
        -8.976252172682681
      ],
      [
        "▁शु॒क्र",
        -8.976552880821998
      ],
      [
        "▁तां",
        -8.978000171931196
      ],
      [
        "॑या",
        -8.980425678397003
      ],
      [
        "▁चि॒त्र",
        -8.980758703108691
      ],
      [
        "▁दध",
        -8.981217437010958
      ],
      [
        "▁यज",
        -8.985029109182083
      ],
      [
        "ा॒नो",
        -8.985710390306673
      ],
      [
        "▁वाज",
        -8.9861712160532
      ],
      [
        "॒ᳪ",
        -8.98750482851513
      ],
      [
        "▁अ॒द्य",
        -8.98777756181698
      ],
      [
        "ेन",
        -8.989075264721457
      ],
      [
        "स्था",
        -8.9893428935499
      ],
      [
        "▁यम",
        -8.989514209850135
      ],
      [
        "▁सूर्य॑",
        -8.990080010964608
      ],
      [
        "▁दू॒त",
        -8.992492698109693
      ],
      [
        "ासो॑",
        -8.99291467597607
      ],
      [
        "▁सर्व",
        -8.993958608919876
      ],
      [
        "न्तं",
        -8.994017122091947
      ],
      [
        "े॑ण",
        -8.995852854719372
      ],
      [
        "दे॒व",
        -8.996432407393481
      ],
      [
        "▁हिर॑ण्य",
        -8.997777386895464
      ],
      [
        "▁धेहि",
        -8.997827707402653
      ],
      [
        "सु॒",
        -8.997956116222765
      ],
      [
        "▁रथ",
        -9.000399484398628
      ],
      [
        "वृध",
        -9.002947572490351
      ],
      [
        "यत्",
        -9.00426988726408
      ],
      [
        "▁नमो॒",
        -9.006624177325252
      ],
      [
        "▁को",
        -9.006962193320094
      ],
      [
        "भी",
        -9.008234173329562
      ],
      [
        "▁अ॒पा",
        -9.008360496802537
      ],
      [
        "▁शंस",
        -9.010084813798244
      ],
      [
        "▁शूर",
        -9.01009836235106
      ],
      [
        "िं",
        -9.010875115633333
      ],
      [
        "▁अधि॒",
        -9.011466384985262
      ],
      [
        "त्वा",
        -9.012593958820698
      ],
      [
        "▁अव॑",
        -9.013496598458152
      ],
      [
        "▁यू॒य",
        -9.014220538539586
      ],
      [
        "ेषु॑",
        -9.01558282589044
      ],
      [
        "▁पृ॑थि॒व्या",
        -9.015609297404604
      ],
      [
        "भ्य॑",
        -9.015909583949847
      ],
      [
        "सं॒",
        -9.017273003647457
      ],
      [
        "॒स्त्व",
        -9.018396032283604
      ],
      [
        "्न",
        -9.018934872157502
      ],
      [
        "ती॒",
        -9.019787012485516
      ],
      [
        "ु॒त",
        -9.021286388413625
      ],
      [
        "॒रो",
        -9.02421200403264
      ],
      [
        "▁वन",
        -9.02720006126548
      ],
      [
        "▁पव॑मान",
        -9.028757856422686
      ],
      [
        "▁तस्मै",
        -9.03057710597624
      ],
      [
        "रु॒त",
        -9.032101025640696
      ],
      [
        "रू",
        -9.032944076798213
      ],
      [
        "त्र॑",
        -9.033599546370962
      ],
      [
        "▁उ॒ग्र",
        -9.03405910808388
      ],
      [
        "ास॒",
        -9.037301099963628
      ],
      [
        "▁म॒हो",
        -9.03781749549897
      ],
      [
        "ने॑",
        -9.039541097437745
      ],
      [
        "▁अनु॒",
        -9.039936840241076
      ],
      [
        "॒हि",
        -9.040744593447435
      ],
      [
        "ुर्",
        -9.04101475058904
      ],
      [
        "ऽव",
        -9.041875216151384
      ],
      [
        "द॒श",
        -9.04196019245906
      ],
      [
        "ेभ्यः",
        -9.04385683473193
      ],
      [
        "॒क",
        -9.044692548952831
      ],
      [
        "ष्क",
        -9.044776136947792
      ],
      [
        "▁र॒यि",
        -9.04668020344322
      ],
      [
        "॑सि॒",
        -9.047105444204997
      ],
      [
        "प्र॑",
        -9.047414973139794
      ],
      [
        "न्ते",
        -9.048307344457172
      ],
      [
        "▁दे॒वान्",
        -9.04873323547126
      ],
      [
        "ुष",
        -9.048808888107082
      ],
      [
        "▁सू",
        -9.049242382073745
      ],
      [
        "रु॒ण",
        -9.0519386297676
      ],
      [
        "▁शि॒व",
        -9.053212941671074
      ],
      [
        "चक्ष",
        -9.054899076255854
      ],
      [
        "▁वह",
        -9.05554358210592
      ],
      [
        "▁अ॒न्य",
        -9.056549393927703
      ],
      [
        "ष्टु",
        -9.056863219001713
      ],
      [
        "▁कृ",
        -9.058564257808918
      ],
      [
        "ासो॒",
        -9.059189491931935
      ],
      [
        "खा",
        -9.059308634695508
      ],
      [
        "▁य॒ज्ञेन",
        -9.059922992979832
      ],
      [
        "हि॑",
        -9.061125223399944
      ],
      [
        "भ्य",
        -9.062471331260255
      ],
      [
        "रं॑",
        -9.06365194956484
      ],
      [
        "▁दे॑व",
        -9.063908595456208
      ],
      [
        "ध्र",
        -9.06416487745622
      ],
      [
        "▁प्र॒जाप॑ति",
        -9.065805574599697
      ],
      [
        "ज॒",
        -9.067254734105202
      ],
      [
        "▁उत्",
        -9.067716038377952
      ],
      [
        "▁द्यु॒म्न",
        -9.067939575566545
      ],
      [
        "▁वः",
        -9.069469711302416
      ],
      [
        "▁गर्भ",
        -9.069903334457893
      ],
      [
        "▁सखा॑य",
        -9.069931644376505
      ],
      [
        "ज्",
        -9.07039432807142
      ],
      [
        "▁अ॑स्य",
        -9.070513693328332
      ],
      [
        "कृत",
        -9.07193732057453
      ],
      [
        "▁भू॒त",
        -9.072510520168024
      ],
      [
        "▁वि॒द्वान्",
        -9.0728886166353
      ],
      [
        "हस्त",
        -9.0748396345852
      ],
      [
        "नाम्",
        -9.081097380712302
      ],
      [
        "े॒ह",
        -9.081603942037695
      ],
      [
        "फ",
        -9.082756453101243
      ],
      [
        "▁अ॒ग्निर्",
        -9.083908439835644
      ],
      [
        "▁सदा॑",
        -9.08419381154688
      ],
      [
        "॒त्व",
        -9.084897178653868
      ],
      [
        "िन्द्र॒",
        -9.085343779698457
      ],
      [
        "णा॒",
        -9.086105913498944
      ],
      [
        "ा॑न्",
        -9.086557897102203
      ],
      [
        "▁गृ॒ह",
        -9.086904838870968
      ],
      [
        "▁वृष",
        -9.088102235821694
      ],
      [
        "मो",
        -9.08910550511977
      ],
      [
        "▁स्याम",
        -9.08973032675829
      ],
      [
        "▁वो",
        -9.091873907486171
      ],
      [
        "ु॒र",
        -9.091967761599731
      ],
      [
        "्र",
        -9.092956784077408
      ],
      [
        "▁मन॑सा",
        -9.09358032213619
      ],
      [
        "पि॒",
        -9.09539009582893
      ],
      [
        "र्दे॒व",
        -9.095970392037389
      ],
      [
        "▁मद",
        -9.097774003284522
      ],
      [
        "▁व॒त्स",
        -9.098034203604048
      ],
      [
        "कु",
        -9.098723305967752
      ],
      [
        "नां॒",
        -9.100007419756317
      ],
      [
        "▁दे॒वेषु",
        -9.10111603724356
      ],
      [
        "ि॒दं",
        -9.10154369272234
      ],
      [
        "▁इ॒मे",
        -9.101563350231007
      ],
      [
        "ष्टा",
        -9.102026919252149
      ],
      [
        "भ्य॒",
        -9.10217459431358
      ],
      [
        "मान",
        -9.102407935609952
      ],
      [
        "धा॑",
        -9.103912007901627
      ],
      [
        "▁इन्द्रो॒",
        -9.105621448130936
      ],
      [
        "▁स॒हस्र॑",
        -9.106077793557724
      ],
      [
        "त॑म",
        -9.107723116632153
      ],
      [
        "न्ति॑",
        -9.107861747652
      ],
      [
        "▁मा॒ता",
        -9.108247085888069
      ],
      [
        "▁रथं",
        -9.10981728913174
      ],
      [
        "स्तु॒",
        -9.113937590923088
      ],
      [
        "▁प्रथ॒म",
        -9.114022321472603
      ],
      [
        "ृ॒ण",
        -9.114346118832696
      ],
      [
        "▁वां",
        -9.11520939541549
      ],
      [
        "ो॒ऽ",
        -9.116562791281048
      ],
      [
        "▁ह॒विषा",
        -9.116896048765764
      ],
      [
        "▁स्व॒स्ति",
        -9.1187185681199
      ],
      [
        "षो",
        -9.119421711762833
      ],
      [
        "वीर",
        -9.120149222154856
      ],
      [
        "▁पर्य",
        -9.121858793245782
      ],
      [
        "▁द॑ध",
        -9.122765129826533
      ],
      [
        "ते॑",
        -9.12376284022734
      ],
      [
        "विष",
        -9.124506509816216
      ],
      [
        "▁जा",
        -9.125465827079006
      ],
      [
        "▁पू॒र्व्य",
        -9.130058011057514
      ],
      [
        "॒न्व",
        -9.1300866680965
      ],
      [
        "▁सर्वा॑",
        -9.130337144422082
      ],
      [
        "थ॒",
        -9.134359963450564
      ],
      [
        "▁स्व॒धा",
        -9.137207902658506
      ],
      [
        "▁उ॒प॒या॒मगृ॑हीतो",
        -9.137562769391756
      ],
      [
        "स्मे",
        -9.138008866407247
      ],
      [
        "▁मधु॒",
        -9.138901407174084
      ],
      [
        "▁सद",
        -9.140891635706058
      ],
      [
        "▁ह॑",
        -9.140910923422345
      ],
      [
        "सु॑",
        -9.141237860208118
      ],
      [
        "षि॒",
        -9.14297986518595
      ],
      [
        "मसि",
        -9.14335302742929
      ],
      [
        "ो॑ऽ",
        -9.146682207495502
      ],
      [
        "स्ते॑",
        -9.147795903925092
      ],
      [
        "▁इति",
        -9.149481752454154
      ],
      [
        "ण॒",
        -9.150044879441603
      ],
      [
        "▁तव॒",
        -9.150425727567187
      ],
      [
        "▁पूर्व",
        -9.151911779100065
      ],
      [
        "▁अश्व",
        -9.154536894283524
      ],
      [
        "ेष",
        -9.154917063768789
      ],
      [
        "॒हा",
        -9.155016366807558
      ],
      [
        "▁दि॒श",
        -9.155722294848465
      ],
      [
        "▁स्तोम",
        -9.155768011326018
      ],
      [
        "▁राज",
        -9.157107015616685
      ],
      [
        "▁सन्तु",
        -9.157448848250464
      ],
      [
        "तौ",
        -9.157630814410693
      ],
      [
        "▁षु",
        -9.157650907355404
      ],
      [
        "▁स॑वि॒ता",
        -9.15794533360726
      ],
      [
        "श्विना",
        -9.157956058447567
      ],
      [
        "षी",
        -9.158731579718944
      ],
      [
        "े॑व",
        -9.159565181500575
      ],
      [
        "॒स्या",
        -9.1611450364261
      ],
      [
        "न्त्व",
        -9.162683873926198
      ],
      [
        "▁म॒हे",
        -9.165109891306816
      ],
      [
        "॒वे",
        -9.166634746680735
      ],
      [
        "▁ध्रु॒व",
        -9.16703468474898
      ],
      [
        "वे",
        -9.169242768157702
      ],
      [
        "▁अ॒स्मिन्",
        -9.169673155708807
      ],
      [
        "ीः",
        -9.17161111724673
      ],
      [
        "ा॒न्",
        -9.17230841005227
      ],
      [
        "छ",
        -9.173100676327874
      ],
      [
        "▁यज॑",
        -9.173247691263423
      ],
      [
        "▁पुर",
        -9.17327384118458
      ],
      [
        "▁भुव",
        -9.173494803626609
      ],
      [
        "॒ण्य",
        -9.173906537416764
      ],
      [
        "▁घृ॒तेन",
        -9.175106041551684
      ],
      [
        "ञ्छ",
        -9.176106082096943
      ],
      [
        "म॑ह",
        -9.17872316171086
      ],
      [
        "े॒ष",
        -9.17892007126725
      ],
      [
        "▁रा॒य",
        -9.179389176377397
      ],
      [
        "िः",
        -9.184355540467042
      ],
      [
        "नू",
        -9.184656870195989
      ],
      [
        "नां॑",
        -9.186990764643143
      ],
      [
        "▁मर्त्य",
        -9.1877383758768
      ],
      [
        "▁शुष्म",
        -9.187895088967654
      ],
      [
        "॒दं",
        -9.189488433563843
      ],
      [
        "ृ॑त",
        -9.189960530994725
      ],
      [
        "स्वा",
        -9.190510948594593
      ],
      [
        "र्व॑",
        -9.190674932508715
      ],
      [
        "ाम्",
        -9.191918376852596
      ],
      [
        "ि॒रे",
        -9.192387332519631
      ],
      [
        "▁सोमो॑",
        -9.19297691982598
      ],
      [
        "मृत",
        -9.193555586643097
      ],
      [
        "थः",
        -9.193850885581671
      ],
      [
        "▁वरु॑ण",
        -9.194013535306803
      ],
      [
        "भ्या",
        -9.194382524237234
      ],
      [
        "▁प॒र",
        -9.196354058235723
      ],
      [
        "॒तः",
        -9.196501265378576
      ],
      [
        "▁वर",
        -9.197010763624611
      ],
      [
        "ेव॒",
        -9.197536433349192
      ],
      [
        "भि॑र",
        -9.197554398789642
      ],
      [
        "▁म॒रुतो",
        -9.199090347804251
      ],
      [
        "▁राजा॑",
        -9.19994876020364
      ],
      [
        "त॒र",
        -9.201967373869252
      ],
      [
        "ा॑न",
        -9.20386131789893
      ],
      [
        "ग्नी",
        -9.204086934756065
      ],
      [
        "▁का",
        -9.205020370721249
      ],
      [
        "▁त्वे",
        -9.20544618010668
      ],
      [
        "▁भ॒द्रा",
        -9.205518133062096
      ],
      [
        "▁रज",
        -9.20626388230444
      ],
      [
        "▁जि",
        -9.2078082529208
      ],
      [
        "▁वा॒यु",
        -9.208210444558064
      ],
      [
        "ल्",
        -9.20867607859153
      ],
      [
        "▁सह",
        -9.213505175818888
      ],
      [
        "ा॒द",
        -9.215054967736544
      ],
      [
        "प्स",
        -9.215663619882914
      ],
      [
        "िन्द्र",
        -9.21674844908759
      ],
      [
        "भृ",
        -9.21756942673028
      ],
      [
        "▁पू॒षा",
        -9.217851243449182
      ],
      [
        "▁नू॒न",
        -9.218840350089664
      ],
      [
        "ाँ॒",
        -9.220519381275569
      ],
      [
        "वृत",
        -9.221472200643936
      ],
      [
        "णः",
        -9.221665229760305
      ],
      [
        "॑वे",
        -9.221758100133504
      ],
      [
        "॑नं",
        -9.222981346044543
      ],
      [
        "॒च",
        -9.223011685987156
      ],
      [
        "च॑",
        -9.224221655755148
      ],
      [
        "भिर्",
        -9.226251967233017
      ],
      [
        "▁यक्ष",
        -9.227868994073583
      ],
      [
        "यै",
        -9.22793497886375
      ],
      [
        "▁चि",
        -9.228207401772378
      ],
      [
        "मनु॑",
        -9.228377661641185
      ],
      [
        "॒ग्नि",
        -9.228581321425548
      ],
      [
        "▁कर",
        -9.22868737617808
      ],
      [
        "▁पृ॑थि॒वी",
        -9.229773701801651
      ],
      [
        "▁विश्व॑स्य",
        -9.231852162649323
      ],
      [
        "▁मो",
        -9.232360925688823
      ],
      [
        "ध॒",
        -9.2337368823792
      ],
      [
        "▁ह॒व्य",
        -9.234067203244829
      ],
      [
        "ा॑म",
        -9.234281768769408
      ],
      [
        "▁प॒द",
        -9.234307423793272
      ],
      [
        "▁पा॑त",
        -9.234985718794064
      ],
      [
        "ां॑",
        -9.235352796086651
      ],
      [
        "िरे",
        -9.23557872683364
      ],
      [
        "ी॑र",
        -9.236139504095604
      ],
      [
        "▁धे॒नु",
        -9.238301993058895
      ],
      [
        "▁मयि",
        -9.238601921185264
      ],
      [
        "ा॑व",
        -9.239766748709306
      ],
      [
        "▁पत",
        -9.240146674833342
      ],
      [
        "▁वृषा॑",
        -9.24123349837864
      ],
      [
        "▁स्म",
        -9.241241920073197
      ],
      [
        "▁अ॒प",
        -9.245480355555578
      ],
      [
        "ग्ने",
        -9.249245779733355
      ],
      [
        "ख्य",
        -9.250665932824845
      ],
      [
        "▁वा॒म",
        -9.251114543293578
      ],
      [
        "स्ति॒",
        -9.251548132451646
      ],
      [
        "▁प्रि॒यं",
        -9.252029670859976
      ],
      [
        "॒त्रा",
        -9.252422296291764
      ],
      [
        "▁ह्य",
        -9.25280252709013
      ],
      [
        "▁त्वां",
        -9.25308751631159
      ],
      [
        "भ्यो",
        -9.253297985558332
      ],
      [
        "॑ष्ट",
        -9.253648264327378
      ],
      [
        "क॒",
        -9.254811463819598
      ],
      [
        "म॒न्य",
        -9.255561139778798
      ],
      [
        "कृ॑त",
        -9.2557435723869
      ],
      [
        "नृ",
        -9.257202810389431
      ],
      [
        "्यं॑",
        -9.258434141592382
      ],
      [
        "▁रा॒ष्ट्र",
        -9.259733232450223
      ],
      [
        "▁सु॒ते",
        -9.261795864919511
      ],
      [
        "▁वेद",
        -9.262535893161552
      ],
      [
        "मह",
        -9.26312684688093
      ],
      [
        "▁वर्ध",
        -9.266792497100369
      ],
      [
        "त्र॒",
        -9.266820148036556
      ],
      [
        "तिं",
        -9.266917623868174
      ],
      [
        "म॒ह",
        -9.267094877161744
      ],
      [
        "▁त॒नू",
        -9.268550842248336
      ],
      [
        "▁हि॒त",
        -9.268711152824034
      ],
      [
        "यं",
        -9.269268667220242
      ],
      [
        "रि॑व",
        -9.269537190558836
      ],
      [
        "▁हव॑",
        -9.269969206750703
      ],
      [
        "▁हवामहे",
        -9.270216425283062
      ],
      [
        "▁ओष॑धी",
        -9.270444462530673
      ],
      [
        "▁अ॑सि",
        -9.271565454712668
      ],
      [
        "▁भा॒ग",
        -9.27240720180244
      ],
      [
        "▁दे॒वाँ",
        -9.273116980870602
      ],
      [
        "▁यत्र॑",
        -9.274525702422356
      ],
      [
        "▁सर्वं",
        -9.274566307367586
      ],
      [
        "॑र्ष",
        -9.276776733383215
      ],
      [
        "▁मह",
        -9.27904465700676
      ],
      [
        "▁रस",
        -9.28131472750708
      ],
      [
        "▁पु॑रु",
        -9.282290490613873
      ],
      [
        "ग्नि",
        -9.28253668598773
      ],
      [
        "री॑",
        -9.283614640028354
      ],
      [
        "▁भग॑",
        -9.285345286937051
      ],
      [
        "सृज",
        -9.286459673106066
      ],
      [
        "य॑च्छ",
        -9.28791735640579
      ],
      [
        "पत्",
        -9.289747341797112
      ],
      [
        "▁वृषा॒",
        -9.290073734554449
      ],
      [
        "▁उद्",
        -9.29091945271258
      ],
      [
        "▁दा॒शुषे",
        -9.291419781918565
      ],
      [
        "जन",
        -9.29142633529688
      ],
      [
        "▁व॒शा",
        -9.29233274622981
      ],
      [
        "▁घृ॒तं",
        -9.292759250236994
      ],
      [
        "▁मन",
        -9.295227927051542
      ],
      [
        "ऽसि",
        -9.295426300338873
      ],
      [
        "य॑स्य",
        -9.297293792819554
      ],
      [
        "श्म",
        -9.300076805589384
      ],
      [
        "▁म॒हा",
        -9.301082220699447
      ],
      [
        "▁द्वि",
        -9.301369128947483
      ],
      [
        "र॒भि",
        -9.301739680369831
      ],
      [
        "रो॑",
        -9.30356094959702
      ],
      [
        "▁सु॒म्न",
        -9.304575259733088
      ],
      [
        "▁पति॑",
        -9.304977786220489
      ],
      [
        "्यै",
        -9.305773520479184
      ],
      [
        "ामहे",
        -9.307127418286926
      ],
      [
        "्यं॒",
        -9.30747734310236
      ],
      [
        "दृश",
        -9.308046206181237
      ],
      [
        "▁दे॒वं",
        -9.311898689808896
      ],
      [
        "ष्वा",
        -9.313699267580107
      ],
      [
        "थो",
        -9.313995787279872
      ],
      [
        "ाणा",
        -9.314104893690716
      ],
      [
        "▁अ॒ह",
        -9.31414816792022
      ],
      [
        "▁श्रु॒त",
        -9.315516421951802
      ],
      [
        "▁अप॑",
        -9.31559819291849
      ],
      [
        "▁भ॒द्र",
        -9.316121064645335
      ],
      [
        "ीर",
        -9.316451648219546
      ],
      [
        "ैर्",
        -9.31687319388337
      ],
      [
        "द्वि",
        -9.317707170334812
      ],
      [
        "्य॒",
        -9.31809982433515
      ],
      [
        "क्थ",
        -9.31823435303962
      ],
      [
        "जायत",
        -9.31847713336844
      ],
      [
        "▁एक॑",
        -9.31855615477286
      ],
      [
        "न्ती",
        -9.318556382849522
      ],
      [
        "ने॒",
        -9.319859894012136
      ],
      [
        "ग्रा",
        -9.319950957577934
      ],
      [
        "घा",
        -9.32030046338782
      ],
      [
        "नां",
        -9.320309862381908
      ],
      [
        "▁उ॒क्थ",
        -9.321990268790554
      ],
      [
        "॒जा",
        -9.322487232268536
      ],
      [
        "मि॑व",
        -9.322913410798488
      ],
      [
        "▁गो॒पा",
        -9.326995573597893
      ],
      [
        "▁उप",
        -9.327219656678349
      ],
      [
        "ेषु॒",
        -9.329548681387765
      ],
      [
        "दि॑त",
        -9.32973791642656
      ],
      [
        "स्म",
        -9.33098321148556
      ],
      [
        "णा॑",
        -9.331509087477386
      ],
      [
        "गो",
        -9.331864308746072
      ],
      [
        "॒त्या",
        -9.332310881865954
      ],
      [
        "म॒स्म",
        -9.332413680001974
      ],
      [
        "▁वि॒द",
        -9.332908552885732
      ],
      [
        "▁बृ॒हद्",
        -9.334012357758326
      ],
      [
        "▁अ॒भ्य",
        -9.335187132072177
      ],
      [
        "ि॑त",
        -9.335577813959995
      ],
      [
        "सं॑",
        -9.33668210238264
      ],
      [
        "▁सीद",
        -9.337278387786323
      ],
      [
        "▁कृणु",
        -9.33731804083169
      ],
      [
        "▁घ॒र्म",
        -9.337634751760053
      ],
      [
        "▁वयो॒",
        -9.340433685780894
      ],
      [
        "▁यज॑मान",
        -9.341562338829164
      ],
      [
        "▁यत्र॒",
        -9.342214439599683
      ],
      [
        "र॒स",
        -9.343465875526054
      ],
      [
        "▁वज्र",
        -9.343902062758623
      ],
      [
        "॒ङ्ग",
        -9.346481333474266
      ],
      [
        "नं॑",
        -9.348072217487648
      ],
      [
        "▁मन॑सा॒",
        -9.348898761462554
      ],
      [
        "ाँ॑",
        -9.34895227814085
      ],
      [
        "▁घृ॒त",
        -9.352489899556124
      ],
      [
        "▁सो॑म",
        -9.352562907811445
      ],
      [
        "▁पाहि",
        -9.352923651442415
      ],
      [
        "मी॑",
        -9.355174529528156
      ],
      [
        "चा",
        -9.355947725150198
      ],
      [
        "▁स्या॑म",
        -9.358536738750592
      ],
      [
        "॑ति॒",
        -9.359000888346335
      ],
      [
        "ज॑न",
        -9.359323808164207
      ],
      [
        "▁हरि॑",
        -9.360556859005603
      ],
      [
        "हा॑",
        -9.360741750899209
      ],
      [
        "▁पिन्व",
        -9.360762873975832
      ],
      [
        "ध्व॒र",
        -9.360815681690692
      ],
      [
        "▁भूरि॑",
        -9.3612434101988
      ],
      [
        "ड्",
        -9.362571143055996
      ],
      [
        "त्य॑",
        -9.36313306215083
      ],
      [
        "तिष्ठ",
        -9.364365156970395
      ],
      [
        "▁पुरु",
        -9.36518377486879
      ],
      [
        "▁भुव॑नानि",
        -9.365933097698337
      ],
      [
        "▁दैव",
        -9.366760689161447
      ],
      [
        "▁ख",
        -9.367030444657882
      ],
      [
        "स्त॒न्व",
        -9.367158202256752
      ],
      [
        "▁य॒म",
        -9.369681393059968
      ],
      [
        "▁शव॑सा",
        -9.370541717987065
      ],
      [
        "▁न्य",
        -9.370652911618151
      ],
      [
        "॒स्",
        -9.371582647558078
      ],
      [
        "॒स्ते",
        -9.371944709498448
      ],
      [
        "▁सोमो॒",
        -9.371992850321224
      ],
      [
        "िष्ट",
        -9.372114770058165
      ],
      [
        "ेण॒",
        -9.372457484293546
      ],
      [
        "▁उत्त॑र",
        -9.372707535102284
      ],
      [
        "णो॒",
        -9.374047606328745
      ],
      [
        "▁वसु॒",
        -9.375659938103984
      ],
      [
        "▁यु",
        -9.377094105253144
      ],
      [
        "▁इत्",
        -9.37769774626931
      ],
      [
        "▁गच्छ",
        -9.37801447641688
      ],
      [
        "▁विश्वा॑नि",
        -9.379413007138911
      ],
      [
        "▁अस्य",
        -9.37988554523845
      ],
      [
        "॒भ्य",
        -9.380187644775589
      ],
      [
        "ू॒त",
        -9.382503435676922
      ],
      [
        "▁येन",
        -9.384186911966568
      ],
      [
        "▁ग॑हि",
        -9.384810909322546
      ],
      [
        "े॑व॒",
        -9.38513284972729
      ],
      [
        "मित्र",
        -9.385848533479637
      ],
      [
        "▁धि॒या",
        -9.386663757523284
      ],
      [
        "▁विश",
        -9.38734714167649
      ],
      [
        "न्नि",
        -9.387847982752804
      ],
      [
        "ृ॒त",
        -9.38854379032114
      ],
      [
        "वाच",
        -9.38870048508241
      ],
      [
        "था॑",
        -9.39303498767024
      ],
      [
        "रिव",
        -9.393856093470646
      ],
      [
        "▁इ॒य",
        -9.394120536713178
      ],
      [
        "▁सु॒तस्य",
        -9.39483758298546
      ],
      [
        "▁स॒मिध",
        -9.3969305660296
      ],
      [
        "▁योनि",
        -9.397969332187554
      ],
      [
        "▁ग॑त",
        -9.398500256207813
      ],
      [
        "▁पी॒तये",
        -9.398624330361894
      ],
      [
        "ऽभि",
        -9.398841867195229
      ],
      [
        "▁किं",
        -9.398881021267194
      ],
      [
        "्ये॒",
        -9.39951454849636
      ],
      [
        "्यो",
        -9.400567418247912
      ],
      [
        "ाति",
        -9.400684141213477
      ],
      [
        "▁वाज॑",
        -9.40136921572846
      ],
      [
        "ान्य",
        -9.40594555788736
      ],
      [
        "ृ॑ण",
        -9.406182693416042
      ],
      [
        "ानि॒",
        -9.407605049104962
      ],
      [
        "▁पर्व॑ता",
        -9.40776175798003
      ],
      [
        "हो",
        -9.407873494309948
      ],
      [
        "▁गि॒रा",
        -9.409519498798035
      ],
      [
        "द्या",
        -9.409783800713484
      ],
      [
        "जु",
        -9.41039669196821
      ],
      [
        "ेन्द्र",
        -9.412130257910306
      ],
      [
        "्ये",
        -9.412813691816204
      ],
      [
        "▁मम॑",
        -9.413431218231327
      ],
      [
        "▁रा",
        -9.41345383265887
      ],
      [
        "कं",
        -9.415456303193809
      ],
      [
        "▁सच",
        -9.417959471966064
      ],
      [
        "▁रोह",
        -9.41876752079824
      ],
      [
        "▁शि॒वा",
        -9.418789795031302
      ],
      [
        "▁तू",
        -9.41908127687872
      ],
      [
        "ऽग्नि",
        -9.419729463516507
      ],
      [
        "वि॒ता",
        -9.420677294006902
      ],
      [
        "॒स्ता",
        -9.420943278189458
      ],
      [
        "▁स्व॒स्तये",
        -9.42168465166638
      ],
      [
        "वः॑",
        -9.421877031350176
      ],
      [
        "▁यथा",
        -9.422148629260624
      ],
      [
        "॑श्च॒",
        -9.422389845484952
      ],
      [
        "वाँ",
        -9.422928343927776
      ],
      [
        "▁महि॒",
        -9.423336140587733
      ],
      [
        "सो॑",
        -9.424033746100244
      ],
      [
        "न्तो",
        -9.425470820960882
      ],
      [
        "▁सूर्य",
        -9.42552786439087
      ],
      [
        "र्हि",
        -9.4256220870192
      ],
      [
        "यं॒",
        -9.4262132663727
      ],
      [
        "ऽसि॒",
        -9.427494966400175
      ],
      [
        "▁मन्य",
        -9.428389004814065
      ],
      [
        "▁गिर",
        -9.428755198410862
      ],
      [
        "भ्यो॑",
        -9.429023271579734
      ],
      [
        "रिन्द्र",
        -9.429210026424952
      ],
      [
        "▁हृ॒द",
        -9.42953891810041
      ],
      [
        "का॒र",
        -9.429985748320988
      ],
      [
        "▁स॑मु॒द्र",
        -9.430719046979446
      ],
      [
        "▁प॒",
        -9.431077389673002
      ],
      [
        "▁त्रि॒",
        -9.43159446039546
      ],
      [
        "▁मह॒त",
        -9.432871896281764
      ],
      [
        "॑भिः",
        -9.433337510243444
      ],
      [
        "▁उ॒रु",
        -9.433379933302223
      ],
      [
        "शो",
        -9.434724247974415
      ],
      [
        "▁ऋ॒तस्य॒",
        -9.435774829115005
      ],
      [
        "▁स्व॑",
        -9.438120850890648
      ],
      [
        "ऽऽ",
        -9.43884782068605
      ],
      [
        "॒व्या",
        -9.439065103825657
      ],
      [
        "नाम",
        -9.439679158522775
      ],
      [
        "▁द्याम",
        -9.440205091769265
      ],
      [
        "▁मदा॑य",
        -9.440382783872668
      ],
      [
        "▁चि॑द",
        -9.440724012400102
      ],
      [
        "▁विप्र",
        -9.441406107986817
      ],
      [
        "ध्या",
        -9.441584315057025
      ],
      [
        "▁अप॒",
        -9.441837608633463
      ],
      [
        "▁पिब",
        -9.443915228139828
      ],
      [
        "ष्ट्र",
        -9.443949236615747
      ],
      [
        "िं॒",
        -9.444178987596665
      ],
      [
        "▁दि॒व्य",
        -9.444829737335162
      ],
      [
        "▁व्य॑",
        -9.445036492005006
      ],
      [
        "▁वस्व",
        -9.44518546060479
      ],
      [
        "▁वार",
        -9.44633064102274
      ],
      [
        "णि॒",
        -9.448311724070903
      ],
      [
        "नी॑",
        -9.448922961538422
      ],
      [
        "▁दद",
        -9.449340333560809
      ],
      [
        "▁ब्रह्म",
        -9.449617291875713
      ],
      [
        "▁राजा॒",
        -9.450889673759091
      ],
      [
        "▁दिवं",
        -9.45138416969324
      ],
      [
        "क्षत",
        -9.451776680065292
      ],
      [
        "य॒न्",
        -9.452111512867756
      ],
      [
        "स्ते॒",
        -9.452546968454651
      ],
      [
        "▁ह॒विष",
        -9.453532081721734
      ],
      [
        "ज्ञा",
        -9.453991597009413
      ],
      [
        "▁हर",
        -9.455200526742484
      ],
      [
        "▁ह॒वि",
        -9.455624702996127
      ],
      [
        "न्ते॒",
        -9.455854598326468
      ],
      [
        "▁मधु॑म",
        -9.458047573409576
      ],
      [
        "▁पञ्च॑",
        -9.458946838005785
      ],
      [
        "॑तः",
        -9.459821572567185
      ],
      [
        "▁तुभ्यं",
        -9.460151612246046
      ],
      [
        "ऽप",
        -9.460159614124024
      ],
      [
        "मृ॒",
        -9.46043517654142
      ],
      [
        "▁मध्व",
        -9.460715207095802
      ],
      [
        "▁म॒णि",
        -9.460807726584662
      ],
      [
        "▁प॒शु",
        -9.460908506995574
      ],
      [
        "▁धाम॑",
        -9.460990369399616
      ],
      [
        "तस्य॒",
        -9.46120699185346
      ],
      [
        "▁भग",
        -9.461360470443676
      ],
      [
        "स्रा",
        -9.461969398341967
      ],
      [
        "ऽग्ने",
        -9.462941505573788
      ],
      [
        "वाह",
        -9.463042664777694
      ],
      [
        "॒विद",
        -9.4637132977828
      ],
      [
        "▁प्रत्य",
        -9.465438549970631
      ],
      [
        "ुप॑",
        -9.466645922328478
      ],
      [
        "▁के॒तु",
        -9.467730807032137
      ],
      [
        "▁ऊ॒र्ध्व",
        -9.468735225714337
      ],
      [
        "▁देव॒",
        -9.469453329501537
      ],
      [
        "▁ऊ॒",
        -9.470785969284943
      ],
      [
        "▁द्वि॒ष्म",
        -9.47097852570953
      ],
      [
        "लि",
        -9.471840053772652
      ],
      [
        "दी॑",
        -9.471956325358567
      ],
      [
        "▁र॑क्ष",
        -9.473147775915525
      ],
      [
        "▁म॒हाँ",
        -9.474036315921037
      ],
      [
        "▁द्वेष्टि",
        -9.47407070245641
      ],
      [
        "चक्र",
        -9.47472830242721
      ],
      [
        "वृ॒ध",
        -9.47534360352001
      ],
      [
        "▁पि॒तु",
        -9.475346907002535
      ],
      [
        "▁धी",
        -9.47544094674758
      ],
      [
        "ूर्",
        -9.478236481539136
      ],
      [
        "▁मह्यं",
        -9.4787217795746
      ],
      [
        "तेऽ",
        -9.479699790257229
      ],
      [
        "▁ए॒ता",
        -9.480161073463776
      ],
      [
        "ु॑र्",
        -9.481186588885516
      ],
      [
        "र्ति",
        -9.481325311934
      ],
      [
        "▁पुरु॑ष",
        -9.482273314064766
      ],
      [
        "थो॑",
        -9.482435540955
      ],
      [
        "ि॑ष",
        -9.483748380842409
      ],
      [
        "॒न्त्व",
        -9.483846303459584
      ],
      [
        "दान",
        -9.484762030400027
      ],
      [
        "▁म॒ति",
        -9.484864499848287
      ],
      [
        "▁य॒ज्ञो",
        -9.485269597334906
      ],
      [
        "ाऽ",
        -9.485466924502624
      ],
      [
        "ऽस्य",
        -9.48596389620445
      ],
      [
        "भे",
        -9.4861191548552
      ],
      [
        "▁सप्त",
        -9.488208090451325
      ],
      [
        "▁रु॒द्र",
        -9.48841615032978
      ],
      [
        "॒र्य",
        -9.49266512026866
      ],
      [
        "म॑न",
        -9.493350536375754
      ],
      [
        "दास",
        -9.493934378026037
      ],
      [
        "▁नम॒",
        -9.494075567702184
      ],
      [
        "▁ध्रु॒वा",
        -9.497705319105666
      ],
      [
        "म॒द्य",
        -9.498336936570972
      ],
      [
        "स्मि",
        -9.498619033993702
      ],
      [
        "▁इन्द्रा",
        -9.498743583807954
      ],
      [
        "▁राष्ट्र",
        -9.50029492880916
      ],
      [
        "नं",
        -9.50128367601306
      ],
      [
        "▁महि॑",
        -9.501895626634075
      ],
      [
        "▁य॒ज्ञम",
        -9.50328158059489
      ],
      [
        "॒न्या",
        -9.504921124249837
      ],
      [
        "नी॑क",
        -9.506075047019682
      ],
      [
        "य॑न्ति",
        -9.506347500803766
      ],
      [
        "▁बृह॒त",
        -9.506732151364108
      ],
      [
        "ंह॑स",
        -9.507277238526912
      ],
      [
        "ृत",
        -9.507614362019568
      ],
      [
        "▁प॒वित्र",
        -9.50771709098797
      ],
      [
        "▁रु॒द्रा",
        -9.51028426609012
      ],
      [
        "सद",
        -9.511521064013548
      ],
      [
        "▁क्षय",
        -9.5116891818536
      ],
      [
        "॑मि",
        -9.51365920709474
      ],
      [
        "▁भेष॒ज",
        -9.514033958804973
      ],
      [
        "दो",
        -9.514903741822476
      ],
      [
        "यन्",
        -9.516128333068629
      ],
      [
        "▁वयो॑",
        -9.51677113688362
      ],
      [
        "मश्विना",
        -9.516877879141164
      ],
      [
        "▁वात",
        -9.517084839277018
      ],
      [
        "▁च॒क्र",
        -9.517222159725591
      ],
      [
        "व्य॑",
        -9.518592075176612
      ],
      [
        "जा॒न",
        -9.518646074484916
      ],
      [
        "ा॑नि",
        -9.520085094856183
      ],
      [
        "ऋ",
        -9.520659770097964
      ],
      [
        "योः",
        -9.520725854019158
      ],
      [
        "▁ति॑ष्ठ",
        -9.521599227542035
      ],
      [
        "ᳪश",
        -9.52159991184516
      ],
      [
        "ोप॑",
        -9.5222045027115
      ],
      [
        "▁विप्रा॑",
        -9.525567611219348
      ],
      [
        "मिन्द्रं",
        -9.5258625516387
      ],
      [
        "स्त॒",
        -9.526407673654411
      ],
      [
        "▁दु॒",
        -9.526424374803948
      ],
      [
        "▁गिर॑",
        -9.526803951565498
      ],
      [
        "▁नाम॒",
        -9.527007275828517
      ],
      [
        "ि॒ष्ट",
        -9.5271907001734
      ],
      [
        "▁दक्षि॑णा",
        -9.52777013903537
      ],
      [
        "▁सिन्धु॑",
        -9.527865046812591
      ],
      [
        "▁अग्न",
        -9.528545701950804
      ],
      [
        "▁दु",
        -9.531299174803143
      ],
      [
        "॒ल",
        -9.531884553568108
      ],
      [
        "्वा॑",
        -9.531996744118691
      ],
      [
        "मि॒त्र",
        -9.532174164940162
      ],
      [
        "▁वाजं",
        -9.53415061493934
      ],
      [
        "▁य॒ज्ञे",
        -9.536237696763951
      ],
      [
        "▁यु॒",
        -9.536260877096996
      ],
      [
        "मे॒",
        -9.536901991964283
      ],
      [
        "ा॒ह",
        -9.537065659211912
      ],
      [
        "▁भुव॑नस्य",
        -9.5381190738736
      ],
      [
        "घा॒",
        -9.538819639184144
      ],
      [
        "▁ब्रह्म॑णा",
        -9.539098294406305
      ],
      [
        "▁इद्",
        -9.539130175045734
      ],
      [
        "ग्ने॑",
        -9.540883402550811
      ],
      [
        "श्चा",
        -9.541019203093809
      ],
      [
        "शे",
        -9.541460627182357
      ],
      [
        "न्द्रा",
        -9.54166941970108
      ],
      [
        "ट",
        -9.541706578265645
      ],
      [
        "्यं",
        -9.5427542716975
      ],
      [
        "▁जिन्व",
        -9.542830339496412
      ],
      [
        "मि॒ह",
        -9.543274307365596
      ],
      [
        "▁धत्त",
        -9.543615697611097
      ],
      [
        "्ना",
        -9.54434365385705
      ],
      [
        "▁पा॒प",
        -9.545592033947672
      ],
      [
        "▁मनो॑",
        -9.54628955489926
      ],
      [
        "▁रा॒ति",
        -9.546904202741016
      ],
      [
        "▁यदि॑",
        -9.547288950511051
      ],
      [
        "्वि",
        -9.548713999220071
      ],
      [
        "॑न्ती",
        -9.54936811558344
      ],
      [
        "▁इ॒ष",
        -9.54944304072647
      ],
      [
        "मेक",
        -9.54987579945831
      ],
      [
        "▁व्र॒त",
        -9.549918682700536
      ],
      [
        "▁नू",
        -9.550282513368586
      ],
      [
        "▁भा",
        -9.550384346150016
      ],
      [
        "▁प्रथ॒मा",
        -9.550950818877793
      ],
      [
        "मुप॑",
        -9.551483085749236
      ],
      [
        "यामि",
        -9.554264821156815
      ],
      [
        "▁तस्मा॑",
        -9.556058395860182
      ],
      [
        "कृत्",
        -9.55608366626204
      ],
      [
        "▁ब्रह्म॒",
        -9.556975186778104
      ],
      [
        "▁च॒न",
        -9.557484445267631
      ],
      [
        "म॑न्",
        -9.557796144142907
      ],
      [
        "श्रु",
        -9.560014586345746
      ],
      [
        "॒का",
        -9.560975469356432
      ],
      [
        "▁यस्या",
        -9.561229202061313
      ],
      [
        "त्यं",
        -9.561615888464104
      ],
      [
        "▁सूर्यं",
        -9.5616490405986
      ],
      [
        "॒म्भ",
        -9.561649440376858
      ],
      [
        "योऽ",
        -9.563042258978273
      ],
      [
        "णं॑",
        -9.56315887851614
      ],
      [
        "▁सखा॑",
        -9.5637371261327
      ],
      [
        "चे॑त",
        -9.56421141337606
      ],
      [
        "ि॒ष्य",
        -9.564604390576005
      ],
      [
        "ा॑सो",
        -9.56507302524498
      ],
      [
        "्मा",
        -9.565373159927866
      ],
      [
        "▁पू॒र्वी",
        -9.56553019066375
      ],
      [
        "ाद्",
        -9.565551801931733
      ],
      [
        "ो॑ऽसि",
        -9.5658268343849
      ],
      [
        "॒रं",
        -9.56586757682911
      ],
      [
        "े॑न॒",
        -9.565991444418986
      ],
      [
        "वेद",
        -9.566519731217788
      ],
      [
        "म॒घ",
        -9.566711275008824
      ],
      [
        "▁विश्व॑",
        -9.567024718927229
      ],
      [
        "▁त॒न्व",
        -9.570168753545785
      ],
      [
        "▁जा॒तवे॑दस",
        -9.57058606469722
      ],
      [
        "▁मरुतो",
        -9.57071614609723
      ],
      [
        "वृ॑त",
        -9.5713065067081
      ],
      [
        "▁ग॒ण",
        -9.571558040470908
      ],
      [
        "▁अस",
        -9.57202045512022
      ],
      [
        "न्तो॒",
        -9.573568131826342
      ],
      [
        "▁स्वाह",
        -9.573667093355407
      ],
      [
        "ी॒र",
        -9.573952918123808
      ],
      [
        "▁होत",
        -9.574428796906933
      ],
      [
        "▁नम॑सा",
        -9.575744242458253
      ],
      [
        "दू॒",
        -9.576279802364596
      ],
      [
        "▁बृ॒हत्",
        -9.5763930627893
      ],
      [
        "य॑न्ती",
        -9.576500059441983
      ],
      [
        "ानां॒",
        -9.577354890741866
      ],
      [
        "स्त्वा॒",
        -9.577446270262037
      ],
      [
        "यामसि",
        -9.5778977713245
      ],
      [
        "र॑सि",
        -9.578435995146148
      ],
      [
        "▁वर्च॑सा",
        -9.578838638069673
      ],
      [
        "प॑ति",
        -9.57907721832794
      ],
      [
        "▁दश॑",
        -9.58026030648405
      ],
      [
        "याः",
        -9.580630475256555
      ],
      [
        "्यो॒",
        -9.58081783940326
      ],
      [
        "▁किम",
        -9.581114399534544
      ],
      [
        "णां",
        -9.585169131843829
      ],
      [
        "▁हरी॑",
        -9.587443943886996
      ],
      [
        "▁पुन",
        -9.588256612810298
      ],
      [
        "श्वा",
        -9.588780472486508
      ],
      [
        "▁सचा॑",
        -9.589241519964563
      ],
      [
        "वत्",
        -9.590216537489445
      ],
      [
        "▁पु॒र",
        -9.5905576352241
      ],
      [
        "ध्व॒रे",
        -9.590628720474037
      ],
      [
        "▁रा॒ये",
        -9.590768067351348
      ],
      [
        "▁म॒न्द्र",
        -9.59201102904776
      ],
      [
        "हं",
        -9.592295028179713
      ],
      [
        "्रा",
        -9.592989547489683
      ],
      [
        "॑वः",
        -9.593944436590052
      ],
      [
        "का॒",
        -9.594083825847646
      ],
      [
        "▁घृ",
        -9.594133809993934
      ],
      [
        "मु॒ग्र",
        -9.594529314083085
      ],
      [
        "▁अह",
        -9.595964646833412
      ],
      [
        "▁आयु॑",
        -9.59619053054864
      ],
      [
        "न्या",
        -9.59720153478892
      ],
      [
        "न्तः",
        -9.597609831112177
      ],
      [
        "▁ग॑च्छ",
        -9.597671612456349
      ],
      [
        "▁सर्वा॒",
        -9.597892012969131
      ],
      [
        "र्नि",
        -9.598109209421596
      ],
      [
        "▁इन्द्रि॒य",
        -9.59846923489226
      ],
      [
        "वै",
        -9.59966646108488
      ],
      [
        "▁ब्रह्म॑ण",
        -9.599819449753117
      ],
      [
        "▁वसू॑नि",
        -9.60024829029203
      ],
      [
        "दे॒",
        -9.60043592356333
      ],
      [
        "▁नम॑स्ते",
        -9.60118655806594
      ],
      [
        "श्विना॒",
        -9.601341203146308
      ],
      [
        "ज्यो",
        -9.601346032898174
      ],
      [
        "▁दे॒वाना॑म",
        -9.602143540434998
      ],
      [
        "▁पर॒मे",
        -9.603033860597172
      ],
      [
        "▁अ॒भी",
        -9.604235344958475
      ],
      [
        "णो॑",
        -9.605855489235855
      ],
      [
        "ा॒यु",
        -9.606092320059147
      ],
      [
        "वृष",
        -9.606720096970864
      ],
      [
        "॒म्य",
        -9.608103973409646
      ],
      [
        "▁जी॒व",
        -9.60836069061244
      ],
      [
        "▁व॒ध",
        -9.609887993115729
      ],
      [
        "▁सुम॒ति",
        -9.610355423162437
      ],
      [
        "▁वरुण",
        -9.612272025436514
      ],
      [
        "▁दी॒र्घ",
        -9.613720815205252
      ],
      [
        "त्स्व",
        -9.614910426342725
      ],
      [
        "▁येन॑",
        -9.616144006855237
      ],
      [
        "▁निर्",
        -9.616262778566208
      ],
      [
        "स्त्र",
        -9.616545063424407
      ],
      [
        "▁मृ॒ग",
        -9.616586509414828
      ],
      [
        "त॑मा",
        -9.616633608285746
      ],
      [
        "ा॑त्",
        -9.617598289364206
      ],
      [
        "॒र्न",
        -9.61770976749511
      ],
      [
        "ेभि॑र",
        -9.6179003965397
      ],
      [
        "▁अ॑ग्ने",
        -9.61814188145592
      ],
      [
        "मू॒",
        -9.618151701767948
      ],
      [
        "श्रुत",
        -9.618472709758446
      ],
      [
        "राध",
        -9.618913645387462
      ],
      [
        "त॑र",
        -9.61954862628724
      ],
      [
        "▁जीव",
        -9.61988327160455
      ],
      [
        "▁सर्वे॑",
        -9.620104327858556
      ],
      [
        "ज्र",
        -9.620559919753555
      ],
      [
        "भ॒",
        -9.62126893601958
      ],
      [
        "वत",
        -9.621406895883938
      ],
      [
        "ाह",
        -9.621518239473463
      ],
      [
        "स्त॑",
        -9.62194134405259
      ],
      [
        "नम्",
        -9.622992269020566
      ],
      [
        "न्यो",
        -9.624078010015026
      ],
      [
        "स्ति",
        -9.625151424749076
      ],
      [
        "दिश",
        -9.625387850728888
      ],
      [
        "ग्निं",
        -9.630837604949887
      ],
      [
        "▁सू॒रि",
        -9.6308560603001
      ],
      [
        "सम्",
        -9.630918196881096
      ],
      [
        "॑ᳪ",
        -9.631561351668932
      ],
      [
        "॑ये",
        -9.63235219705982
      ],
      [
        "▁कृ॒ष्ण",
        -9.632833141392243
      ],
      [
        "▁स्व॒स्तिभि॒",
        -9.632844739626536
      ],
      [
        "▁कृ॑णु",
        -9.633340297989974
      ],
      [
        "ेव॑",
        -9.635860647474953
      ],
      [
        "सु॑र",
        -9.636184037240868
      ],
      [
        "ना॒म",
        -9.63710017424907
      ],
      [
        "न्नु",
        -9.637334170004983
      ],
      [
        "▁बृ॒ह",
        -9.640797262775626
      ],
      [
        "▁शुचि॑",
        -9.641284029655068
      ],
      [
        "े॒मा",
        -9.642012454147462
      ],
      [
        "▁अ॒न्तरि॑क्ष",
        -9.645481198775084
      ],
      [
        "▁हिर॒ण्यय",
        -9.646378835869326
      ],
      [
        "स्तम",
        -9.646655259877924
      ],
      [
        "▁प्र॒त्न",
        -9.646771761573849
      ],
      [
        "▁वृ॒क्ष",
        -9.647038394898374
      ],
      [
        "स्त्वा॑",
        -9.647109029459672
      ],
      [
        "▁सहस्र",
        -9.64737731016895
      ],
      [
        "॒र्मा",
        -9.64939853732212
      ],
      [
        "ेभ्यो॒",
        -9.649528696902822
      ],
      [
        "▁रे॒व",
        -9.64962097733752
      ],
      [
        "य॒ज्ञिय",
        -9.649946454169797
      ],
      [
        "यं॑",
        -9.650422244725872
      ],
      [
        "▁सु॒ग",
        -9.650624225363712
      ],
      [
        "▁वय॑",
        -9.651024478605905
      ],
      [
        "जात",
        -9.65128932331281
      ],
      [
        "चि॑",
        -9.653623110950493
      ],
      [
        "▁चि॒द",
        -9.65366489522606
      ],
      [
        "▁सी॑द",
        -9.653690411636928
      ],
      [
        "▁सवि॒तु",
        -9.6538884176784
      ],
      [
        "णां॒",
        -9.65447530383111
      ],
      [
        "▁धन्व",
        -9.655333733473348
      ],
      [
        "▁स्तु॒त",
        -9.655473696943533
      ],
      [
        "▁तम॑",
        -9.656013176226434
      ],
      [
        "कृ॑ण",
        -9.656139330175952
      ],
      [
        "जा॒",
        -9.656176381196072
      ],
      [
        "▁रक्ष॑",
        -9.657487588194124
      ],
      [
        "महे",
        -9.658441644771855
      ],
      [
        "▁भुव॑ना",
        -9.659264502343198
      ],
      [
        "▁ऋ॒तस्य",
        -9.659584261800603
      ],
      [
        "र्वा॒",
        -9.661412150905786
      ],
      [
        "मस्य",
        -9.662093842725351
      ],
      [
        "ॄ",
        -9.66219008394286
      ],
      [
        "▁व्र॒ज",
        -9.66264276829226
      ],
      [
        "ोत",
        -9.662703391267138
      ],
      [
        "▁होत॒र्यज",
        -9.663094374683808
      ],
      [
        "▁दि॒व्या",
        -9.66368132936764
      ],
      [
        "भूम",
        -9.663708063421405
      ],
      [
        "▁तान्",
        -9.664319097738652
      ],
      [
        "▁वाज॑स्य",
        -9.664350380833572
      ],
      [
        "र॑म",
        -9.66466333925818
      ],
      [
        "ेन्द्रा॑य",
        -9.664672135869305
      ],
      [
        "ह॒न्",
        -9.666109556378856
      ],
      [
        "▁सर्व॑",
        -9.666497419945214
      ],
      [
        "तवे",
        -9.666614994577522
      ],
      [
        "र॑थ",
        -9.66682308636578
      ],
      [
        "च्छा॑",
        -9.667101155177445
      ],
      [
        "▁अव",
        -9.667156909250876
      ],
      [
        "म॒स्य",
        -9.667167134597232
      ],
      [
        "यते॒",
        -9.667514880078665
      ],
      [
        "▁सो॒म्य",
        -9.668356197011608
      ],
      [
        "▁ब्र॒ह्मा",
        -9.669398941807804
      ],
      [
        "॒मुप॑",
        -9.670050705307773
      ],
      [
        "य॑मान",
        -9.670802108950353
      ],
      [
        "पते",
        -9.670824533548991
      ],
      [
        "॒शि",
        -9.671103623858151
      ],
      [
        "▁स॒हस्र",
        -9.67171115151083
      ],
      [
        "▁म॒न्यु",
        -9.672996403680331
      ],
      [
        "ा॒ण",
        -9.673527293377996
      ],
      [
        "▁हर्य",
        -9.674465896363536
      ],
      [
        "▁च॒न्द्र",
        -9.674496504885138
      ],
      [
        "ोऽसि",
        -9.67472680284378
      ],
      [
        "▁ददा",
        -9.675212824629384
      ],
      [
        "र्वा॑",
        -9.675268343881244
      ],
      [
        "▁पु॒रो",
        -9.6756593687692
      ],
      [
        "▁वृष॑णं",
        -9.677876885550432
      ],
      [
        "॒क्षु",
        -9.677902287044574
      ],
      [
        "▁राजा॑न",
        -9.6783864078498
      ],
      [
        "▁म॒खस्य",
        -9.678410616707486
      ],
      [
        "▁मृ॒त्यु",
        -9.678420166592964
      ],
      [
        "▁पु॒ष्ट",
        -9.67863681466261
      ],
      [
        "▁गोम॑त",
        -9.679774711258014
      ],
      [
        "ि॒या",
        -9.680311519821732
      ],
      [
        "▁स्थि॒र",
        -9.680463226249838
      ],
      [
        "▁सृ॑ज",
        -9.680493663155632
      ],
      [
        "▁या॑हि",
        -9.68127520649364
      ],
      [
        "▁वोच",
        -9.681853286621193
      ],
      [
        "▁अच्छा॑",
        -9.682273713783882
      ],
      [
        "▁तत्र",
        -9.683168209746285
      ],
      [
        "॒मो",
        -9.683243126267731
      ],
      [
        "▁त्वष्टा॑",
        -9.68366562520943
      ],
      [
        "सौ",
        -9.684911365287824
      ],
      [
        "॒रु",
        -9.685489002031815
      ],
      [
        "▁पी",
        -9.686113123989152
      ],
      [
        "▁यदा",
        -9.687415602313058
      ],
      [
        "▁यज्",
        -9.687702615406415
      ],
      [
        "▁ह॒व्या",
        -9.689286814553554
      ],
      [
        "▁वि॒ष",
        -9.6895344161925
      ],
      [
        "ताम",
        -9.69195205477521
      ],
      [
        "▁प्र॑थ॒म",
        -9.692287748715714
      ],
      [
        "भ॑व",
        -9.692398841090665
      ],
      [
        "ुत्",
        -9.69463061770366
      ],
      [
        "▁सा॒कं",
        -9.694864792124594
      ],
      [
        "पो॒",
        -9.695213979991106
      ],
      [
        "▁अ॒पो",
        -9.69553757787232
      ],
      [
        "म॒घोन",
        -9.696541202476624
      ],
      [
        "▁रुद्र",
        -9.697950503055273
      ],
      [
        "ेभ्य॑",
        -9.698038770046486
      ],
      [
        "त्क",
        -9.698372885589738
      ],
      [
        "स॑द",
        -9.69862240434048
      ],
      [
        "▁यन्ति",
        -9.69874808874562
      ],
      [
        "॒दे",
        -9.700073148755092
      ],
      [
        "▁भी॒म",
        -9.700088579866854
      ],
      [
        "▁इ॑न्द्र",
        -9.700856729238216
      ],
      [
        "मृ॒त",
        -9.702940607492817
      ],
      [
        "▁र॒श्मि",
        -9.703975755097924
      ],
      [
        "र॒ण",
        -9.704608192514122
      ],
      [
        "भृ॑त",
        -9.704823147045245
      ],
      [
        "पि॑ब",
        -9.706673361353497
      ],
      [
        "यन्ति",
        -9.7076632598494
      ],
      [
        "यः॑",
        -9.708868448556771
      ],
      [
        "ा॑णि",
        -9.709989186982988
      ],
      [
        "मन्त",
        -9.710111684938443
      ],
      [
        "ेना",
        -9.710784495491223
      ],
      [
        "ेन्द्र॑",
        -9.710931481888252
      ],
      [
        "▁वसु॒ध",
        -9.7110933633904
      ],
      [
        "ब॒भूव",
        -9.711440598872382
      ],
      [
        "▁विधेम",
        -9.71155907493729
      ],
      [
        "श्रे",
        -9.711836852634338
      ],
      [
        "▁गा॒तु",
        -9.712053708594146
      ],
      [
        "का॑म",
        -9.712142859849031
      ],
      [
        "▁श्रिय",
        -9.712444473829196
      ],
      [
        "▁बृ॒हन्त",
        -9.71270177614784
      ],
      [
        "षू",
        -9.712850235612656
      ],
      [
        "पते॒",
        -9.712961563828346
      ],
      [
        "▁बृह॒ती",
        -9.714555467685186
      ],
      [
        "ाति॒",
        -9.714665507318902
      ],
      [
        "॑ञ्च",
        -9.71529045280785
      ],
      [
        "श्री",
        -9.716611118802083
      ],
      [
        "ञ",
        -9.71676637421729
      ],
      [
        "॒पो",
        -9.71701899421642
      ],
      [
        "र्यो",
        -9.717403750112794
      ],
      [
        "▁गौ",
        -9.71893963821636
      ],
      [
        "▁वृष्ण",
        -9.719506119900585
      ],
      [
        "▁द्यौः",
        -9.72118180276279
      ],
      [
        "▁रथ॑",
        -9.721630976884835
      ],
      [
        "▁अ॒मृत",
        -9.722561121184109
      ],
      [
        "्य॑स्य",
        -9.722722292786376
      ],
      [
        "▁वि॒दु",
        -9.72351102755152
      ],
      [
        "▁दस्य",
        -9.7235408565599
      ],
      [
        "माना",
        -9.72357068223738
      ],
      [
        "रथ",
        -9.723959169223868
      ],
      [
        "▁मर्त",
        -9.7253981627391
      ],
      [
        "▁मा॒या",
        -9.725631698567357
      ],
      [
        "▁छन्द॑",
        -9.725877307679312
      ],
      [
        "णि॑",
        -9.726190588766492
      ],
      [
        "श्व॑",
        -9.727468577406
      ],
      [
        "ऽह",
        -9.727700608972462
      ],
      [
        "▁स॒धस्थ",
        -9.7282306093725
      ],
      [
        "▁नि॒युत",
        -9.728441077555146
      ],
      [
        "रास",
        -9.728706318370342
      ],
      [
        "▁होता॒",
        -9.72878561073872
      ],
      [
        "▁ब्रह्मा॑णि",
        -9.728822714860948
      ],
      [
        "▁सूर",
        -9.729017078480704
      ],
      [
        "र॒थ",
        -9.729607656632185
      ],
      [
        "▁तु॒र",
        -9.729904464637054
      ],
      [
        "ेषु",
        -9.730595450391451
      ],
      [
        "कः",
        -9.730778701005589
      ],
      [
        "▁यां",
        -9.731226158376632
      ],
      [
        "द्धा",
        -9.731348768551292
      ],
      [
        "▁वृक",
        -9.731981506197886
      ],
      [
        "▁यस्ते॑",
        -9.732232927531824
      ],
      [
        "▁उ॒तो",
        -9.732662181253913
      ],
      [
        "▁वद",
        -9.733851574816908
      ],
      [
        "▁क॒दा",
        -9.733979353978814
      ],
      [
        "श्वा॑",
        -9.734258204097817
      ],
      [
        "▁क्रतु॑",
        -9.734792979973026
      ],
      [
        "▁द्वा",
        -9.7348034038227
      ],
      [
        "ोज॑सा",
        -9.735637225836818
      ],
      [
        "▁स॒त्रा",
        -9.735978001521984
      ],
      [
        "रत्",
        -9.736072057536092
      ],
      [
        "▁छ",
        -9.736076070501664
      ],
      [
        "व्रत",
        -9.737154297142542
      ],
      [
        "म॑ग्ने",
        -9.737432306978633
      ],
      [
        "▁देवा",
        -9.73765652178155
      ],
      [
        "▁मानु॑ष",
        -9.737831999945817
      ],
      [
        "ह॑न्",
        -9.738496350537924
      ],
      [
        "▁श्ये॒न",
        -9.74091970449209
      ],
      [
        "▁मा॒तर",
        -9.74093773192711
      ],
      [
        "▁विश्वं",
        -9.741180099434647
      ],
      [
        "कर्म",
        -9.741182183406735
      ],
      [
        "म॑र्त्य",
        -9.742101203700312
      ],
      [
        "▁यत्ते",
        -9.7428887018684
      ],
      [
        "हा॒",
        -9.743467431213515
      ],
      [
        "ᳪस",
        -9.74350651673366
      ],
      [
        "▁इन्द्र॑श्च",
        -9.743597051729374
      ],
      [
        "व॑सा",
        -9.743699329767816
      ],
      [
        "ा॒त्",
        -9.743971964974463
      ],
      [
        "भि॒रा",
        -9.744353708311325
      ],
      [
        "▁या॒त",
        -9.74447711037865
      ],
      [
        "▁बाध",
        -9.744604252681114
      ],
      [
        "▁प॒थ",
        -9.744844527930285
      ],
      [
        "▁कर्म॑",
        -9.744865150065074
      ],
      [
        "व॒द्",
        -9.745514472491756
      ],
      [
        "▁सोम॑पीतये",
        -9.74563110137819
      ],
      [
        "▁ध॒रुण",
        -9.745641936664429
      ],
      [
        "▁कल्पन्ताम",
        -9.745644290663416
      ],
      [
        "▁धामा॑नि",
        -9.745653743653657
      ],
      [
        "▁पि॒तरं",
        -9.746051593401472
      ],
      [
        "शा॑",
        -9.746096591794933
      ],
      [
        "▁वि॒श्वत॑",
        -9.746565547909704
      ],
      [
        "▁व॒र्ष",
        -9.746785061168737
      ],
      [
        "श्रव",
        -9.746804220172631
      ],
      [
        "ति॑ष्ठ",
        -9.747186900803673
      ],
      [
        "▁दश॒",
        -9.747848064202408
      ],
      [
        "॒ज्",
        -9.749518586544715
      ],
      [
        "मे॒त",
        -9.749589222610016
      ],
      [
        "॑यः",
        -9.749913827341578
      ],
      [
        "▁उ॒भा",
        -9.751527273529447
      ],
      [
        "रुप॑",
        -9.75196531967859
      ],
      [
        "▁इष",
        -9.752367380515093
      ],
      [
        "व॒स्य",
        -9.75246761837883
      ],
      [
        "भुव",
        -9.752738096865128
      ],
      [
        "च्यते",
        -9.753242945428063
      ],
      [
        "ी॒त",
        -9.753483477657396
      ],
      [
        "▁रज॑स",
        -9.753585093907535
      ],
      [
        "त॑वे",
        -9.75555514985288
      ],
      [
        "▁म॒हान्",
        -9.756247607239803
      ],
      [
        "भू॑त",
        -9.756503188362029
      ],
      [
        "श",
        -9.757100689799412
      ],
      [
        "याम",
        -9.757161803615972
      ],
      [
        "▁तत",
        -9.757782071040314
      ],
      [
        "वसो",
        -9.763638284713616
      ],
      [
        "▁दे॒वेभ्य॑",
        -9.76371088439767
      ],
      [
        "युः",
        -9.76392800207928
      ],
      [
        "भि॒र्न",
        -9.764479154099655
      ],
      [
        "▁दुरि॒ता",
        -9.764524096135744
      ],
      [
        "▁जा॒तो",
        -9.764593626576696
      ],
      [
        "रा॒ज",
        -9.765660651494017
      ],
      [
        "▁वर्च",
        -9.766096284423424
      ],
      [
        "▁स॒द्यो",
        -9.767860319845418
      ],
      [
        "▁पु॒रु",
        -9.76906596853718
      ],
      [
        "व॑री",
        -9.76973952596074
      ],
      [
        "▁मेऽ",
        -9.770070286795882
      ],
      [
        "▁युव",
        -9.77030224632565
      ],
      [
        "दो॒",
        -9.771345335174953
      ],
      [
        "द्यां",
        -9.771683468319187
      ],
      [
        "॒जित",
        -9.77169806807715
      ],
      [
        "ो॒त",
        -9.77229733972068
      ],
      [
        "▁मदे॑",
        -9.772613135487967
      ],
      [
        "का॑",
        -9.773028939541076
      ],
      [
        "▁श॒र",
        -9.77379542661614
      ],
      [
        "▁द्रवि॑ण",
        -9.774958762653725
      ],
      [
        "॑",
        -9.775328099018417
      ],
      [
        "▁क॑र",
        -9.77558266904012
      ],
      [
        "जा॒त",
        -9.775759609866922
      ],
      [
        "▁रथे॑न",
        -9.776613350019892
      ],
      [
        "▁रू॒प",
        -9.777384358637647
      ],
      [
        "▁पर॒म",
        -9.778038074829308
      ],
      [
        "ढ",
        -9.77818930774121
      ],
      [
        "व॑से",
        -9.779466575888016
      ],
      [
        "नो॑",
        -9.779751969814017
      ],
      [
        "▁एक",
        -9.780377121388094
      ],
      [
        "॒न्म",
        -9.780511315388043
      ],
      [
        "▁सह॑स्व",
        -9.78088620911035
      ],
      [
        "▁धार॑या",
        -9.781041715838686
      ],
      [
        "▁वा॒जी",
        -9.78176174762791
      ],
      [
        "षः",
        -9.781958235741255
      ],
      [
        "▁सु॒हव",
        -9.782374688373189
      ],
      [
        "▁पृथ",
        -9.782634178085814
      ],
      [
        "॒ला",
        -9.782848298935756
      ],
      [
        "▁आपो",
        -9.783551571666042
      ],
      [
        "मिन्द्र॒",
        -9.78456766039874
      ],
      [
        "ामसि",
        -9.784943014616845
      ],
      [
        "▁र॑भ",
        -9.786382524196108
      ],
      [
        "मद",
        -9.786517242283798
      ],
      [
        "▁अत्र",
        -9.786969739065295
      ],
      [
        "▁पुन॑र्",
        -9.78743371431469
      ],
      [
        "ज्म",
        -9.788226792742766
      ],
      [
        "▁जना॑",
        -9.78854289780872
      ],
      [
        "▁अति॑",
        -9.788581040779668
      ],
      [
        "न्त॑",
        -9.789218507854317
      ],
      [
        "▁यज॑मानाय",
        -9.791226158086996
      ],
      [
        "▁पिप",
        -9.791822054234704
      ],
      [
        "▁वा॒च",
        -9.792418460301038
      ],
      [
        "▁ऐ",
        -9.792561273622423
      ],
      [
        "▁सूर्य॒",
        -9.793012462973408
      ],
      [
        "ासो",
        -9.793965851496829
      ],
      [
        "▁यव",
        -9.793971663112332
      ],
      [
        "ा॒भि",
        -9.794056967198248
      ],
      [
        "दे॑",
        -9.794163788573387
      ],
      [
        "े॒ना",
        -9.794336656882226
      ],
      [
        "रन्",
        -9.794648877997728
      ],
      [
        "िभि॑",
        -9.794686646703802
      ],
      [
        "▁स्वि",
        -9.795706867564604
      ],
      [
        "▁ऊ॒तय",
        -9.796235983903811
      ],
      [
        "▁याम",
        -9.796356598062903
      ],
      [
        "▁प्रा॒णो",
        -9.796361893266036
      ],
      [
        "ष्टि॒",
        -9.797325853843814
      ],
      [
        "▁दृ",
        -9.797876954127458
      ],
      [
        "▁दा॒",
        -9.798807876253562
      ],
      [
        "द्भि",
        -9.798859520343084
      ],
      [
        "▁स॒पत्न",
        -9.798981741708277
      ],
      [
        "ै॒व",
        -9.799086654338208
      ],
      [
        "▁दि॒वेदि॑वे",
        -9.799214536225522
      ],
      [
        "▁क॒लश",
        -9.799231413812215
      ],
      [
        "▁प॑वस्व",
        -9.799236668232016
      ],
      [
        "स्पते",
        -9.800170945298929
      ],
      [
        "▁भ्रात",
        -9.80050118214255
      ],
      [
        "मे॒व",
        -9.801550318090811
      ],
      [
        "▁जा॒ता",
        -9.801743779699422
      ],
      [
        "▁द्रवि॑णं",
        -9.802260397660802
      ],
      [
        "▁स्था",
        -9.803838594387503
      ],
      [
        "॒र्यो",
        -9.803907250352632
      ],
      [
        "॒मी",
        -9.80393641437866
      ],
      [
        "▁हव्य",
        -9.804129233878683
      ],
      [
        "वान्",
        -9.804835439612374
      ],
      [
        "॒के",
        -9.805413449073756
      ],
      [
        "से॑",
        -9.805912090325627
      ],
      [
        "▁दुह",
        -9.806921722895645
      ],
      [
        "र्षति",
        -9.807004741321384
      ],
      [
        "▁वच",
        -9.807174070848436
      ],
      [
        "▁य॒दा",
        -9.808046339936515
      ],
      [
        "▁भवन्तु",
        -9.81019807571044
      ],
      [
        "▁यदि॒",
        -9.810790909511132
      ],
      [
        "▁नरा",
        -9.811834087856798
      ],
      [
        "▁ग॑म",
        -9.812343865748456
      ],
      [
        "यसे",
        -9.812712772738822
      ],
      [
        "▁रा॑ज",
        -9.812740000679536
      ],
      [
        "तुर",
        -9.813033395936005
      ],
      [
        "ा॒प",
        -9.813584797464358
      ],
      [
        "द्रि",
        -9.814120456154496
      ],
      [
        "व॒र्त",
        -9.814447278976266
      ],
      [
        "मधि॑",
        -9.814593572799277
      ],
      [
        "्य॑म्",
        -9.814677940791064
      ],
      [
        "॑न्ति॒",
        -9.816228202319198
      ],
      [
        "▁पु॒रू",
        -9.817405094290551
      ],
      [
        "▁पोष",
        -9.81810167002609
      ],
      [
        "▁भ॒द्रं",
        -9.818459270486764
      ],
      [
        "▁अधा॑",
        -9.819964280679011
      ],
      [
        "॒ग्नये॑",
        -9.82027834405444
      ],
      [
        "▁सृज",
        -9.820280189566308
      ],
      [
        "्याः",
        -9.821246253038238
      ],
      [
        "▁आ॒स",
        -9.822396563688564
      ],
      [
        "मिन्द्रा॑य",
        -9.822895699870449
      ],
      [
        "▁त्वम॑ग्ने",
        -9.822972127884626
      ],
      [
        "▁पृ॒ष्ठे",
        -9.823542871040203
      ],
      [
        "यद्",
        -9.82376962842206
      ],
      [
        "रं",
        -9.82407570777013
      ],
      [
        "वास",
        -9.825685469419849
      ],
      [
        "▁पवते",
        -9.826249666042337
      ],
      [
        "वा॑न",
        -9.826590838647588
      ],
      [
        "▁वि॒शा",
        -9.826662488983231
      ],
      [
        "श्व॒",
        -9.826798341573546
      ],
      [
        "▁स्तोमं",
        -9.828547863480187
      ],
      [
        "व॑स",
        -9.828715050838088
      ],
      [
        "द॒ग्नि",
        -9.8287222084147
      ],
      [
        "न्वा",
        -9.829708407408468
      ],
      [
        "▁पात्र",
        -9.830067885831223
      ],
      [
        "▁स्व॑र्",
        -9.83021722181354
      ],
      [
        "▁दधा॑ना",
        -9.83200691339521
      ],
      [
        "▁शुचि",
        -9.832579166843932
      ],
      [
        "भू॒",
        -9.832840450237384
      ],
      [
        "त्रा॑",
        -9.833703008719125
      ],
      [
        "▁भवति",
        -9.83414399010626
      ],
      [
        "ध्यै",
        -9.83560958550786
      ],
      [
        "▁अ॒ग्ने",
        -9.835768553631496
      ],
      [
        "दी॒",
        -9.836165302586387
      ],
      [
        "▁कोश",
        -9.836500222478891
      ],
      [
        "▁ब्रह्म॑ण॒स्पति",
        -9.836607706190213
      ],
      [
        "▁प॒क्व",
        -9.83663127234674
      ],
      [
        "▁जी॒वसे॑",
        -9.836683896474746
      ],
      [
        "▁कृ॒त्वा",
        -9.837431612956347
      ],
      [
        "मी॑महे",
        -9.83767588104448
      ],
      [
        "▁सु॒मना",
        -9.837856581774238
      ],
      [
        "▁सवित",
        -9.838053858596329
      ],
      [
        "॒श्विना॑",
        -9.838633972406344
      ],
      [
        "॒मृत",
        -9.839602190668192
      ],
      [
        "पां",
        -9.839726340563592
      ],
      [
        "वि॒द",
        -9.839813142873815
      ],
      [
        "र्य॒ज्ञ",
        -9.839924904398082
      ],
      [
        "ाप॑",
        -9.839962377863028
      ],
      [
        "षे॒",
        -9.840194810863316
      ],
      [
        "▁वाच॑म",
        -9.840422525507671
      ],
      [
        "महे॒",
        -9.840665346317316
      ],
      [
        "▁तस्मा॒",
        -9.841375900594848
      ],
      [
        "कं॒",
        -9.841577826830148
      ],
      [
        "▁ब्र॒ह्म",
        -9.841856628706324
      ],
      [
        "▁व्र",
        -9.841902255372055
      ],
      [
        "▁क्षा",
        -9.84231022139816
      ],
      [
        "स",
        -9.84261378299708
      ],
      [
        "े॑षां",
        -9.843303216270373
      ],
      [
        "▁एन",
        -9.843579571710723
      ],
      [
        "द॑स्य",
        -9.844463808099691
      ],
      [
        "▁नर्य",
        -9.844552931936027
      ],
      [
        "▁मघव॒न्",
        -9.844910387692192
      ],
      [
        "िन्द्र॑",
        -9.84504021052531
      ],
      [
        "णं॒",
        -9.845129911910895
      ],
      [
        "▁वा॑म",
        -9.845271935366636
      ],
      [
        "▁सु॒ता",
        -9.845807975470828
      ],
      [
        "जा॑य",
        -9.84649238312122
      ],
      [
        "मग्ने",
        -9.846700629915912
      ],
      [
        "पो",
        -9.846744803168468
      ],
      [
        "॑ग्ने",
        -9.84696489092572
      ],
      [
        "्रे",
        -9.846983957122964
      ],
      [
        "▁याहि",
        -9.847117675277056
      ],
      [
        "ग॑त",
        -9.847249543297217
      ],
      [
        "॒न्ना",
        -9.847354189460871
      ],
      [
        "र्दि॒व",
        -9.84903861627774
      ],
      [
        "बृह",
        -9.849165940418114
      ],
      [
        "▁गिरो",
        -9.849714929844394
      ],
      [
        "ोष॑धी",
        -9.850836313621944
      ],
      [
        "त्वया॑",
        -9.850985159813613
      ],
      [
        "प्न",
        -9.85121537313861
      ],
      [
        "यां॑",
        -9.851824679911308
      ],
      [
        "स्मै॒",
        -9.85352666480142
      ],
      [
        "▁मनो॒",
        -9.85458795317884
      ],
      [
        "▁रो॑ह",
        -9.854633699619754
      ],
      [
        "वृ॒क",
        -9.854875188911324
      ],
      [
        "▁पौंस्य",
        -9.85583164794169
      ],
      [
        "॒र्च",
        -9.856060778368452
      ],
      [
        "ळ्ह",
        -9.856093608331754
      ],
      [
        "लं",
        -9.857204956315464
      ],
      [
        "▁घोष",
        -9.857327010712142
      ],
      [
        "▁यदि॑न्द्र",
        -9.857400114369453
      ],
      [
        "▁धिय",
        -9.85804602407758
      ],
      [
        "▁परा॒",
        -9.858127430241904
      ],
      [
        "रि॒ह",
        -9.85852085709833
      ],
      [
        "▁चिद",
        -9.858882569333993
      ],
      [
        "▁ऋत",
        -9.85915528317662
      ],
      [
        "▁दू॒र",
        -9.859925883374425
      ],
      [
        "ळा",
        -9.859931673320762
      ],
      [
        "▁व्या",
        -9.860362033699849
      ],
      [
        "▁कृ॒त्या",
        -9.860380968399795
      ],
      [
        "ष्ट्वा",
        -9.861143704689963
      ],
      [
        "्यू",
        -9.8613068141175
      ],
      [
        "▁पत॑ये",
        -9.861467439636016
      ],
      [
        "▁दे॒वता॑",
        -9.86172227808895
      ],
      [
        "▁सद॑ने",
        -9.862180052795068
      ],
      [
        "▁श॒ता",
        -9.862470000300856
      ],
      [
        "▁स॒द्य",
        -9.86355708804147
      ],
      [
        "मायु",
        -9.864157046610142
      ],
      [
        "ृ॑ष",
        -9.864424373029689
      ],
      [
        "▁प्रथ॒मो",
        -9.865343095556216
      ],
      [
        "यम",
        -9.86582689923562
      ],
      [
        "्वा॒",
        -9.86621252078136
      ],
      [
        "▁सूर्यो",
        -9.866284417678887
      ],
      [
        "▁विष्णु॑",
        -9.867647587338483
      ],
      [
        "॒मनु॑",
        -9.868590533804245
      ],
      [
        "॒शी",
        -9.869407587085597
      ],
      [
        "▁बिभ्र॑त",
        -9.869560919530766
      ],
      [
        "य॒ज्ञ",
        -9.869597790056616
      ],
      [
        "ा॑स॒",
        -9.869685940236764
      ],
      [
        "धीमहि",
        -9.87098178811812
      ],
      [
        "क्षी",
        -9.87187601013307
      ],
      [
        "▁प॒श्चा",
        -9.872070628239854
      ],
      [
        "च्च॒",
        -9.872666503020865
      ],
      [
        "▁स॒हस्रं",
        -9.872827443604624
      ],
      [
        "षा॒म",
        -9.873069657512715
      ],
      [
        "▁दा॒शुषे॒",
        -9.873331204675948
      ],
      [
        "ध्वं",
        -9.873706368966843
      ],
      [
        "▁अ॒स्मा",
        -9.875111097172391
      ],
      [
        "र्ण॒व",
        -9.87600469247734
      ],
      [
        "न्त॑म",
        -9.876081603270734
      ],
      [
        "म॑सि",
        -9.87639910208195
      ],
      [
        "▁इन्दो",
        -9.87655726369464
      ],
      [
        "▁सूर्ये॑ण",
        -9.877714575129552
      ],
      [
        "▁ब॒र्हिषि",
        -9.877788455632958
      ],
      [
        "▁त्वे॒ष",
        -9.87793692719967
      ],
      [
        "▁प्र॒दिश",
        -9.87891398420398
      ],
      [
        "▁सू॒नु",
        -9.879735231226777
      ],
      [
        "परि॑",
        -9.879790173368628
      ],
      [
        "॒स्मान्",
        -9.88053795160313
      ],
      [
        "स्या॒",
        -9.882193178892791
      ],
      [
        "श्च॒न्द्र",
        -9.882577827519556
      ],
      [
        "ून्",
        -9.883038531546031
      ],
      [
        "▁परि",
        -9.883057606160865
      ],
      [
        "पतिं",
        -9.883098621733684
      ],
      [
        "▁नव॑",
        -9.883201437721572
      ],
      [
        "ासि॑",
        -9.883745205805194
      ],
      [
        "▁चि॒त्त",
        -9.883892187913649
      ],
      [
        "▁ब॒र्हि",
        -9.884402402588927
      ],
      [
        "▁पिब॑",
        -9.885090004023468
      ],
      [
        "ब्रवी",
        -9.885134274154058
      ],
      [
        "▁बि",
        -9.885625575611746
      ],
      [
        "▁तया॑",
        -9.8871957716369
      ],
      [
        "भोज",
        -9.8878569302694
      ],
      [
        "▁इ॑न्द्र॒",
        -9.88862972776407
      ],
      [
        "▁मद॑",
        -9.888880520993254
      ],
      [
        "▁वरु॑णो॒",
        -9.88894658107683
      ],
      [
        "▁समि॑द्ध",
        -9.888954005326
      ],
      [
        "▁निर",
        -9.891025847323489
      ],
      [
        "▁प॒ण",
        -9.893164277973955
      ],
      [
        "▁पुरु॒",
        -9.8933870018122
      ],
      [
        "॒भी",
        -9.89401016835253
      ],
      [
        "▁चक्षु॑र्",
        -9.894262965316464
      ],
      [
        "▁दे॑वा",
        -9.894572623078624
      ],
      [
        "तुः",
        -9.894610326265417
      ],
      [
        "क्ष्य",
        -9.89525493113246
      ],
      [
        "हो॑",
        -9.895327564324049
      ],
      [
        "े॑ति॒",
        -9.89534491654316
      ],
      [
        "▁बृह॑स्पते",
        -9.89543912744018
      ],
      [
        "▁ति॒ग्म",
        -9.895440680466164
      ],
      [
        "▁पन्था॑",
        -9.895442154847132
      ],
      [
        "▁त्मना॑",
        -9.895452207939227
      ],
      [
        "▁वे॒धस",
        -9.895458144314006
      ],
      [
        "▁पव॑स्व",
        -9.895509381830824
      ],
      [
        "▁ए॒ते",
        -9.895946506672365
      ],
      [
        "▁ऊ॒ती",
        -9.896045252747282
      ],
      [
        "▁अ॑र्य॒मा",
        -9.896183187137275
      ],
      [
        "▁पाश",
        -9.89631415727438
      ],
      [
        "▁आपो॒",
        -9.89636625322032
      ],
      [
        "▁अ॒स्माकं",
        -9.896793106085523
      ],
      [
        "▁शूर॒",
        -9.897024023682228
      ],
      [
        "िष्ठ",
        -9.898192890499018
      ],
      [
        "▁यस्ते॒",
        -9.899303954967154
      ],
      [
        "▁यक्ष्म",
        -9.899476503307175
      ],
      [
        "न्तां",
        -9.89985586622699
      ],
      [
        "▁सु॒वीर्य॑",
        -9.900380325281818
      ],
      [
        "ष्टे",
        -9.90191539746925
      ],
      [
        "▁पव",
        -9.901977087189426
      ],
      [
        "▁मन्म॑",
        -9.902142818225336
      ],
      [
        "ु॒रु",
        -9.902251957646298
      ],
      [
        "▁जय",
        -9.90285515551629
      ],
      [
        "▁य॑ज",
        -9.902926219955102
      ],
      [
        "▁वरु॑णाय",
        -9.904040030695093
      ],
      [
        "॑मिव",
        -9.90518429433271
      ],
      [
        "॒मुद",
        -9.905440620219998
      ],
      [
        "वि॒ष",
        -9.905614168238529
      ],
      [
        "▁स्तोम॑",
        -9.906215993961489
      ],
      [
        "ू॒र्ध्व",
        -9.907114172465636
      ],
      [
        "ानि",
        -9.90808887988426
      ],
      [
        "▁व॑द",
        -9.908095079434757
      ],
      [
        "▁व्यु",
        -9.908300392756455
      ],
      [
        "े॑भिर",
        -9.90852490336474
      ],
      [
        "▁शव",
        -9.908862098127198
      ],
      [
        "राज्ञ",
        -9.909081685679766
      ],
      [
        "▁द॑द",
        -9.910747405082123
      ],
      [
        "॒घ्न",
        -9.911117386295327
      ],
      [
        "्यो॑",
        -9.91133880224818
      ],
      [
        "स्मा॒",
        -9.911477718162566
      ],
      [
        "▁लो॒के",
        -9.912730330880848
      ],
      [
        "मित्",
        -9.91335303530628
      ],
      [
        "▁ब्रह्म॑णा॒",
        -9.913607957742007
      ],
      [
        "▁चर",
        -9.913696521882136
      ],
      [
        "▁स्व॒र्ग",
        -9.914378338762488
      ],
      [
        "▁पि॒तृभ्य",
        -9.914512827058442
      ],
      [
        "र्य॒मा",
        -9.914817411086489
      ],
      [
        "▁पुरुहूत",
        -9.915847163636142
      ],
      [
        "▁रयी॒णा",
        -9.915847277866083
      ],
      [
        "▁वरे॑ण्य",
        -9.915849143991638
      ],
      [
        "▁स॒मु॒द्र",
        -9.915849179623963
      ],
      [
        "▁वि॑वेश",
        -9.915868827998182
      ],
      [
        "▁पाव॒क",
        -9.91588334873396
      ],
      [
        "▁श्रेष्ठ",
        -9.915914640872384
      ],
      [
        "▁ब॒हु",
        -9.915918622310386
      ],
      [
        "▁दे॒वेष्व",
        -9.916455320760177
      ],
      [
        "▁श्रवो॑",
        -9.916786732461864
      ],
      [
        "▁जा॒या",
        -9.917007777529584
      ],
      [
        "▁स्मान्",
        -9.91750707807894
      ],
      [
        "▁पू॒त",
        -9.917753719924836
      ],
      [
        "▁देवा॒",
        -9.91798702887389
      ],
      [
        "▁इन्",
        -9.918156212952152
      ],
      [
        "▁चित्",
        -9.91825651075129
      ],
      [
        "▁पार्थि॑व",
        -9.918951484491853
      ],
      [
        "ङ्गि॑र",
        -9.919024231634534
      ],
      [
        "▁अ॒ग्नय",
        -9.920413717328064
      ],
      [
        "न्ता॑",
        -9.920886524392436
      ],
      [
        "▁अद्रि",
        -9.920918807472296
      ],
      [
        "भूत",
        -9.92110208643879
      ],
      [
        "▁प॒था",
        -9.922372938775023
      ],
      [
        "ाणि॑",
        -9.922496766225398
      ],
      [
        "▁वाचं॑",
        -9.923421128301424
      ],
      [
        "▁घृ॒तस्य",
        -9.92393256630126
      ],
      [
        "यै॑",
        -9.924131319261274
      ],
      [
        "व॑सु",
        -9.92439081969683
      ],
      [
        "रि॑ष्ट",
        -9.924841037660793
      ],
      [
        "▁चि॒द्",
        -9.925246895146236
      ],
      [
        "▁गम",
        -9.925345289492098
      ],
      [
        "वि॑द",
        -9.925812969757622
      ],
      [
        "▁वो॑च",
        -9.926623116612806
      ],
      [
        "▁बृह॒स्पति॑",
        -9.92670471460109
      ],
      [
        "▁सह॑",
        -9.926707254639364
      ],
      [
        "ोऽव॑",
        -9.926984501646814
      ],
      [
        "▁रथे॑",
        -9.92869261253111
      ],
      [
        "॒द्या",
        -9.929087463782256
      ],
      [
        "को",
        -9.929114674935212
      ],
      [
        "द॒न",
        -9.93070903492481
      ],
      [
        "▁यन्",
        -9.931374732154042
      ],
      [
        "ाभ्यां",
        -9.932159264228686
      ],
      [
        "▁याव",
        -9.932685958070376
      ],
      [
        "ेक॑",
        -9.932694220152008
      ],
      [
        "▁स्यो॒न",
        -9.933487182566711
      ],
      [
        "▁सी",
        -9.933751403526951
      ],
      [
        "तक्ष",
        -9.934434670325652
      ],
      [
        "॒न्तरि॑क्षं",
        -9.934535759011878
      ],
      [
        "थ॑",
        -9.935151602256592
      ],
      [
        "▁सह॑स",
        -9.935642895584248
      ],
      [
        "▁स॒जोषा॑",
        -9.936680473972311
      ],
      [
        "▁बा॒हू",
        -9.936681914833212
      ],
      [
        "▁जाय॑मान",
        -9.936868440658698
      ],
      [
        "▁वज्रे॑ण",
        -9.936908067561063
      ],
      [
        "▁स्व॒र्विद",
        -9.937087871835962
      ],
      [
        "▁वि॒द्युत",
        -9.937148204010512
      ],
      [
        "▁अ॒स्मभ्यं",
        -9.937276680020078
      ],
      [
        "▁इ॑",
        -9.937738640735862
      ],
      [
        "▁हरी",
        -9.937927265550314
      ],
      [
        "▁भुव॑न",
        -9.938417532029089
      ],
      [
        "धा॑रय",
        -9.938449238337649
      ],
      [
        "▁अ॒द्या",
        -9.938703612949642
      ],
      [
        "▁ए॒षा",
        -9.93876182700586
      ],
      [
        "▁प॑र॒म",
        -9.938970176737287
      ],
      [
        "श्या",
        -9.940690340744265
      ],
      [
        "▁ब्राह्म॒ण",
        -9.941547037854033
      ],
      [
        "▁ब॒र्हिर",
        -9.9415545900345
      ],
      [
        "मिन्द्र॑",
        -9.941924265767048
      ],
      [
        "▁पिबा॒",
        -9.943078312917288
      ],
      [
        "▁गी॒र्भि",
        -9.943737315092749
      ],
      [
        "▁ईं",
        -9.943952850559612
      ],
      [
        "▁पत्नी॑",
        -9.944009549424036
      ],
      [
        "▁सं॒व",
        -9.94422262549141
      ],
      [
        "ुत्त॒म",
        -9.944380185459504
      ],
      [
        "॑का",
        -9.944841675059518
      ],
      [
        "▁पय॑",
        -9.94486464579866
      ],
      [
        "रोह",
        -9.946209087737518
      ],
      [
        "ि॒मं",
        -9.94624663787268
      ],
      [
        "॒र्या",
        -9.949244290664144
      ],
      [
        "▁चेत",
        -9.95030970629122
      ],
      [
        "दि॑न्द्र",
        -9.95047053647812
      ],
      [
        "▁त॒न्वं",
        -9.95217979947362
      ],
      [
        "य॑ते",
        -9.952276236638994
      ],
      [
        "▁स्वे",
        -9.9531428672147
      ],
      [
        "▁उ॒ता",
        -9.953305751996098
      ],
      [
        "ध्व॒र्य",
        -9.953366929088588
      ],
      [
        "ीर्",
        -9.953420256828773
      ],
      [
        "▁यौ",
        -9.95485704609584
      ],
      [
        "▁छन्द",
        -9.955422174981887
      ],
      [
        "▁य॒ज्ञस्य॑",
        -9.955497855010774
      ],
      [
        "▁यन्तु",
        -9.95586782912772
      ],
      [
        "ा॑नां",
        -9.95690432065648
      ],
      [
        "॒ग्ने",
        -9.957332945421609
      ],
      [
        "॒ही",
        -9.95744265181732
      ],
      [
        "▁पातु",
        -9.957596429001022
      ],
      [
        "-",
        -9.95795706942385
      ],
      [
        "▁स्तो॒तृभ्य",
        -9.95795717515588
      ],
      [
        "▁मित्रावरुणा",
        -9.95795720117124
      ],
      [
        "▁शत्रू॑न्",
        -9.957957473450673
      ],
      [
        "▁सू॒नृता॑",
        -9.957957977367608
      ],
      [
        "▁शरी॑र",
        -9.9579858004562
      ],
      [
        "▁म॒खाय",
        -9.958009328858031
      ],
      [
        "▁तन्म",
        -9.958134493637232
      ],
      [
        "▁पृ॒थु",
        -9.958159730970742
      ],
      [
        "▁हुवे",
        -9.958220968137349
      ],
      [
        "जर",
        -9.958509980561244
      ],
      [
        "▁स॒म्रा",
        -9.958518757408685
      ],
      [
        "▁स्वप्न",
        -9.95889084351911
      ],
      [
        "ज॒न",
        -9.959036209155876
      ],
      [
        "▁कृणोतु",
        -9.959358659065058
      ],
      [
        "▁वृत्र॒हा",
        -9.95950077996239
      ],
      [
        "▁दे॒वाना॒म",
        -9.959597969487245
      ],
      [
        "▁गृ॒हे",
        -9.960577710432805
      ],
      [
        "स्मभ्यं",
        -9.960646234430202
      ],
      [
        "श्चि॒द्",
        -9.960707919606318
      ],
      [
        "बृह॒स्पत",
        -9.960936962499815
      ],
      [
        "न्ता॒",
        -9.961114127693952
      ],
      [
        "▁जी॑व",
        -9.9613182518918
      ],
      [
        "मध्य",
        -9.961878330397196
      ],
      [
        "ता॒म",
        -9.9623309177179
      ],
      [
        "▁अध॑",
        -9.96248988820136
      ],
      [
        "शुच",
        -9.96258359968508
      ],
      [
        "▁पुन॑",
        -9.963356539343458
      ],
      [
        "॒न्तः",
        -9.963396257592253
      ],
      [
        "▁वज्रं",
        -9.963746408902765
      ],
      [
        "श॑स्त",
        -9.96392104685464
      ],
      [
        "▁कृ॒ण्वन्",
        -9.963949059362506
      ],
      [
        "▁शि॒वो",
        -9.964661846115078
      ],
      [
        "▁कं",
        -9.965163137904588
      ],
      [
        "▁प्र॒जया॑",
        -9.965757156317524
      ],
      [
        "यी",
        -9.966072715255551
      ],
      [
        "॒वित्",
        -9.9663941864783
      ],
      [
        "▁वि॑श",
        -9.967067495986967
      ],
      [
        "▁शू",
        -9.967432938608782
      ],
      [
        "दधि॑",
        -9.96805137003084
      ],
      [
        "▁श्रव॑",
        -9.968355943437915
      ],
      [
        "॒ग्निर्",
        -9.969131607962744
      ],
      [
        "▁मधु॑मन्त",
        -9.9694948931979
      ],
      [
        "▁व्र॒ते",
        -9.969567785015704
      ],
      [
        "ली",
        -9.970012432413116
      ],
      [
        "तन",
        -9.970287721245736
      ],
      [
        "ु॒र्व",
        -9.970515534745363
      ],
      [
        "▁प॒रो",
        -9.970865569532911
      ],
      [
        "ध्याय",
        -9.971480243683416
      ],
      [
        "न्ये",
        -9.971610363158176
      ],
      [
        "वर्ध॑न",
        -9.971623647455592
      ],
      [
        "वान",
        -9.97191467016434
      ],
      [
        "▁अपि॑",
        -9.972443616022794
      ],
      [
        "▁रोद॑सी॒",
        -9.972875997326136
      ],
      [
        "▁रू॒पं",
        -9.972905994146972
      ],
      [
        "▁अथा॑",
        -9.974035687924571
      ],
      [
        "▁म॒रुत॑",
        -9.974579667455828
      ],
      [
        "ाम॒",
        -9.9756224700521
      ],
      [
        "▁वेद॒",
        -9.975854023053897
      ],
      [
        "स्पृध",
        -9.976029024372856
      ],
      [
        "▁दे॒वेभ्यो॑",
        -9.977405263976516
      ],
      [
        "▁द॒ध",
        -9.977922245103596
      ],
      [
        "▁स॒त्या",
        -9.97825419576002
      ],
      [
        "▁वि॑द",
        -9.97908645623119
      ],
      [
        "न्धि",
        -9.979498636576071
      ],
      [
        "▁ओज॑सा",
        -9.979698328911864
      ],
      [
        "▁इन्द्रा॑ग्नी",
        -9.97970144219434
      ],
      [
        "▁स्क॒म्भ",
        -9.979717679436211
      ],
      [
        "▁बहु॒ध",
        -9.979717757204218
      ],
      [
        "प्स॒रस",
        -9.97972954248852
      ],
      [
        "श्वि॒ना",
        -9.9797324756777
      ],
      [
        "▁र॒क्षस",
        -9.979742804785763
      ],
      [
        "▁श॒क्र",
        -9.979905281886213
      ],
      [
        "▁सू॒रय",
        -9.979987012401754
      ],
      [
        "▁के",
        -9.980576010200728
      ],
      [
        "▁पृत॑नासु",
        -9.980798500932728
      ],
      [
        "ेभि॒र",
        -9.980807476909431
      ],
      [
        "▁स्रव",
        -9.980992429627548
      ],
      [
        "▁धा॒ता",
        -9.980996024799278
      ],
      [
        "▁उ॒द",
        -9.981074866074444
      ],
      [
        "णे॒",
        -9.981565748488784
      ],
      [
        "स्पृश",
        -9.981823581591236
      ],
      [
        "▁प्र॑स॒वे",
        -9.982385010384958
      ],
      [
        "▁प्र॒वत",
        -9.982675449025944
      ],
      [
        "▁व॒यम",
        -9.983702153402424
      ],
      [
        "▁पूर्वे॑",
        -9.984645676540422
      ],
      [
        "▁भवा॑",
        -9.986494071925302
      ],
      [
        "▁ति॒र",
        -9.98655977782168
      ],
      [
        "▁राध॑स",
        -9.9869105803407
      ],
      [
        "▁नव्य",
        -9.98693775801841
      ],
      [
        "▁मनी॒षा",
        -9.987266702729148
      ],
      [
        "ैनं",
        -9.98756347977575
      ],
      [
        "ेण",
        -9.988999144616976
      ],
      [
        "▁उ॒प",
        -9.989435522201369
      ],
      [
        "▁अथ",
        -9.989945502173567
      ],
      [
        "▁स्वाहा",
        -9.990451775951104
      ],
      [
        "पू॒र्व",
        -9.990702567689045
      ],
      [
        "▁मर्य",
        -9.990839153234353
      ],
      [
        "स॑म",
        -9.990843373841283
      ],
      [
        "▁प्रथ",
        -9.990976811993042
      ],
      [
        "▁स॒मा॒न",
        -9.991187733887134
      ],
      [
        "▁सुम॒त",
        -9.991430464938478
      ],
      [
        "▁वा॒चा",
        -9.991637013437076
      ],
      [
        "▁जि॒ह्वा",
        -9.992462044549534
      ],
      [
        "यम्",
        -9.993566626226482
      ],
      [
        "▁द्यौ",
        -9.993687898429409
      ],
      [
        "व॑द",
        -9.99470457559262
      ],
      [
        "▁अ॒न",
        -9.99499635889016
      ],
      [
        "▁सोमा॑",
        -9.995575040142665
      ],
      [
        "▁क्रतुं",
        -9.995605135816518
      ],
      [
        "मु॑प",
        -9.996575610880376
      ],
      [
        "की",
        -9.997180246053752
      ],
      [
        "▁कृ॒ष्णा",
        -9.998958412906834
      ],
      [
        "दि॑ति॒",
        -9.999498515808614
      ],
      [
        "ब॒र्ह",
        -10.000446402365402
      ],
      [
        "▁वि॒दथे॑",
        -10.000699677747171
      ],
      [
        "▁क्षु",
        -10.000700282489884
      ],
      [
        "गृभ",
        -10.00133422837408
      ],
      [
        "▁यस्मि॑न्",
        -10.001921514541676
      ],
      [
        "▁इन्दु॑",
        -10.00213592309985
      ],
      [
        "▁यात",
        -10.00217769936446
      ],
      [
        "▁शी॒र्ष्णे",
        -10.00220384846812
      ],
      [
        "▁वृ॑ष॒भ",
        -10.00225940758153
      ],
      [
        "दे॒वा",
        -10.00256071417615
      ],
      [
        "▁सु॒शेव",
        -10.002643274403868
      ],
      [
        "ै॒र्",
        -10.003438795231752
      ],
      [
        "▁धू॒म",
        -10.003674149659435
      ],
      [
        "▁प्रय॑",
        -10.003882076042482
      ],
      [
        "▁ब॒र्हिष",
        -10.004010885356944
      ],
      [
        "▁पृ॑ण",
        -10.004020911466167
      ],
      [
        "▁वृष॑",
        -10.00410799778308
      ],
      [
        "▁स॒ख्ये",
        -10.004337581808135
      ],
      [
        "॑न॒",
        -10.00442884143066
      ],
      [
        "▁गावो॒",
        -10.004683481380129
      ],
      [
        "▁मुख",
        -10.005382856384776
      ],
      [
        "विन्द",
        -10.005517731638273
      ],
      [
        "त्री",
        -10.00687500293045
      ],
      [
        "▁पाद",
        -10.00693983932218
      ],
      [
        "▁त्वष्ट",
        -10.00757709482017
      ],
      [
        "श्चि॒द",
        -10.007725123822317
      ],
      [
        "▁सह॒",
        -10.00810568758688
      ],
      [
        "▁जातवेदः",
        -10.00824056269571
      ],
      [
        "वी॒",
        -10.008478664169598
      ],
      [
        "▁द्यौर",
        -10.010899937674589
      ],
      [
        "ृ॒तं",
        -10.01245847215198
      ],
      [
        "▁पा॒ह",
        -10.01377253753278
      ],
      [
        "▁मर्त्य॑",
        -10.014068850648224
      ],
      [
        "॒प्सु",
        -10.014548141321374
      ],
      [
        "दु॒र्",
        -10.014602005308568
      ],
      [
        "्वी",
        -10.016148483980572
      ],
      [
        "▁अश्वा॑",
        -10.016746616776196
      ],
      [
        "▁तृ॒तीय",
        -10.016842792958334
      ],
      [
        "▁अध्व॒र",
        -10.017391365946793
      ],
      [
        "ज्जा",
        -10.017400856261098
      ],
      [
        "च्च॑",
        -10.017769333325097
      ],
      [
        "▁वह॑",
        -10.017932851463213
      ],
      [
        "▁विश्वं॑",
        -10.018197714654452
      ],
      [
        "ाज्य॑स्य",
        -10.018698160597012
      ],
      [
        "▁तेज",
        -10.020460853740277
      ],
      [
        "▁अ॒ज",
        -10.022969072958196
      ],
      [
        "॑भिर्",
        -10.024115984472882
      ],
      [
        "॑णं",
        -10.02440549774671
      ],
      [
        "▁वृ॒ष्टि",
        -10.024646016058282
      ],
      [
        "▁हस्ता॑भ्या",
        -10.024646383882503
      ],
      [
        "▁धे॑हि",
        -10.024699439644127
      ],
      [
        "▁वर्म॑",
        -10.024883660528747
      ],
      [
        "▁वन॒स्पति",
        -10.02493477085334
      ],
      [
        "▁होत्रा",
        -10.025131639327048
      ],
      [
        "॒णे",
        -10.025494451411436
      ],
      [
        "▁वी॒त",
        -10.026005800367471
      ],
      [
        "▁धी॒भि",
        -10.026166744345094
      ],
      [
        "▁पूर्व॒",
        -10.027123316192222
      ],
      [
        "▁धियं॑",
        -10.027426097992448
      ],
      [
        "▁त्रीणि",
        -10.027731041669796
      ],
      [
        "धृ॒ष",
        -10.027806574664574
      ],
      [
        "ध्वं॒",
        -10.027959017184124
      ],
      [
        "▁वह्नि॑",
        -10.028817454281278
      ],
      [
        "रण",
        -10.028965446741555
      ],
      [
        "▁तेषां",
        -10.029568432451878
      ],
      [
        "▁स॒हस्रा॑",
        -10.029722200626416
      ],
      [
        "स्ता॑",
        -10.030011600789924
      ],
      [
        "▁विश्व॑म",
        -10.030815458749547
      ],
      [
        "॒मिद्",
        -10.031454664324212
      ],
      [
        "▁तमु॑",
        -10.031721366614688
      ],
      [
        "दि॑व",
        -10.031981608095276
      ],
      [
        "▁तत्त",
        -10.032142546268163
      ],
      [
        "▁शि॑",
        -10.033021755058597
      ],
      [
        "राज",
        -10.033653061247676
      ],
      [
        "॒र्वि",
        -10.033957324796669
      ],
      [
        "ै॒त",
        -10.034173383474265
      ],
      [
        "▁अध॒",
        -10.034625342452832
      ],
      [
        "ह्र",
        -10.038231924399955
      ],
      [
        "▁पुष्य",
        -10.038912538806958
      ],
      [
        "पू॒ष्णो",
        -10.03923376053212
      ],
      [
        "▁च॒क्रु",
        -10.039356715142222
      ],
      [
        "▁या॑त",
        -10.03935780407327
      ],
      [
        "ा॑दि॒त्य",
        -10.039507423921428
      ],
      [
        "े॑भ्यो",
        -10.039844368055522
      ],
      [
        "▁श्रोत्र",
        -10.040129544523715
      ],
      [
        "ष्टु॒त",
        -10.040670968526532
      ],
      [
        "न्यु",
        -10.041179887145711
      ],
      [
        "र॒ग्नि",
        -10.041495418360611
      ],
      [
        "▁साध",
        -10.04166698664892
      ],
      [
        "▁गर्भं",
        -10.042035142074464
      ],
      [
        "्र॒",
        -10.044356159457774
      ],
      [
        "▁यु॒जा",
        -10.044422228562622
      ],
      [
        "पत्य",
        -10.04444426721802
      ],
      [
        "▁वि॒श",
        -10.045588001469431
      ],
      [
        "▁अश्विना",
        -10.046034248304627
      ],
      [
        "घो",
        -10.046423279422216
      ],
      [
        "▁नृभि॑",
        -10.046640143293828
      ],
      [
        "▁गुहा॒",
        -10.047930157474664
      ],
      [
        "▁इन्द॑व",
        -10.047940040023487
      ],
      [
        "▁वा॒यवे",
        -10.04802707402352
      ],
      [
        "▁महि॒ष",
        -10.048289311629068
      ],
      [
        "व॒सा",
        -10.04831802603871
      ],
      [
        "▁म॒ह्ना",
        -10.048329099021938
      ],
      [
        "▁प्रस॒व",
        -10.048855895260417
      ],
      [
        "▁वृ॒धे",
        -10.048967580824314
      ],
      [
        "▁धारा॑",
        -10.049087353723484
      ],
      [
        "▁दे॒वेभ्यः",
        -10.04929104171953
      ],
      [
        "▁पि॒तृ",
        -10.049547163647746
      ],
      [
        "▁मि॒त्रस्य",
        -10.049709758557754
      ],
      [
        "▁अ॒ग्निर",
        -10.049801805224464
      ],
      [
        "पी",
        -10.04996389516452
      ],
      [
        "▁सृ॒ज",
        -10.050357916272295
      ],
      [
        "▁रा॒यो",
        -10.05043533760852
      ],
      [
        "▁सूर्या॑य",
        -10.051350059424822
      ],
      [
        "▁दुव",
        -10.051733197725582
      ],
      [
        "▁रथे॒",
        -10.051929223988903
      ],
      [
        "▁म॒घवा॑",
        -10.05221312652296
      ],
      [
        "मित्रा",
        -10.052436834265702
      ],
      [
        "▁ह॒त",
        -10.05257977263804
      ],
      [
        "ापो॑",
        -10.052633395362324
      ],
      [
        "विष्णु",
        -10.053656653084069
      ],
      [
        "न्ना",
        -10.053878307837214
      ],
      [
        "▁दधा॑न",
        -10.054177197402009
      ],
      [
        "▁वि॑श्व",
        -10.054784747070908
      ],
      [
        "▁अत्य",
        -10.054933208615626
      ],
      [
        "▁गां",
        -10.05544047644574
      ],
      [
        "व॒त्स",
        -10.055662330581304
      ],
      [
        "ासी",
        -10.05629030922536
      ],
      [
        "म॑स्तु",
        -10.056632362321466
      ],
      [
        "च॑क्र",
        -10.056824665142258
      ],
      [
        "स्ति॑",
        -10.057041866963372
      ],
      [
        "▁जुष्टं",
        -10.058013642650344
      ],
      [
        "▁अ॒स्या",
        -10.058015996686112
      ],
      [
        "▁उ॒षसो",
        -10.05818281507193
      ],
      [
        "▁यन्न",
        -10.05819502999194
      ],
      [
        "▁ऋ॒तेन",
        -10.05896705507014
      ],
      [
        "द्यौ",
        -10.059253591139091
      ],
      [
        "कृणो",
        -10.059930431463828
      ],
      [
        "▁पाथ",
        -10.060626067287329
      ],
      [
        "प्या॑य",
        -10.061050410524215
      ],
      [
        "नोति",
        -10.062672070311312
      ],
      [
        "▁पू॒र्ण",
        -10.063464508704078
      ],
      [
        "श्छन्द",
        -10.065256725013086
      ],
      [
        "▁वी॒रा",
        -10.0654306394529
      ],
      [
        "▁रा॒या",
        -10.065440540500571
      ],
      [
        "▁जहि",
        -10.06579773548727
      ],
      [
        "मसि॒",
        -10.066083122447164
      ],
      [
        "▁गन्त",
        -10.06758724943046
      ],
      [
        "▁अस्ति",
        -10.069871280474397
      ],
      [
        "ष्ठाः",
        -10.07090168670967
      ],
      [
        "▁नर॑",
        -10.070915837812546
      ],
      [
        "▁ज्योति॑र",
        -10.0714267580644
      ],
      [
        "भ्राज",
        -10.071673169918505
      ],
      [
        "▁द्र॒प्स",
        -10.07171323678655
      ],
      [
        "स्कृधि",
        -10.071713858419567
      ],
      [
        "▁नास॑त्या",
        -10.07171658624532
      ],
      [
        "▁सर॑स्वत्यै",
        -10.071801958661412
      ],
      [
        "▁वाज॑सातये",
        -10.072024899824338
      ],
      [
        "▁ए॒ना",
        -10.072887578832772
      ],
      [
        "▁मे॒ष",
        -10.073011275237398
      ],
      [
        "▁हवं",
        -10.07344913820084
      ],
      [
        "▁शिरो॑",
        -10.073628258962458
      ],
      [
        "ि॑न्द्र॒",
        -10.074061619390973
      ],
      [
        "▁मुञ्चत",
        -10.074813982067296
      ],
      [
        "▁प्रा॒त",
        -10.075075350817976
      ],
      [
        "▁वि॒दथ",
        -10.075107552670286
      ],
      [
        "▁पि॒त्र",
        -10.075160174595958
      ],
      [
        "हृद",
        -10.07528403550727
      ],
      [
        "पि॒त",
        -10.075356919429822
      ],
      [
        "▁त्रि॒त",
        -10.075536938146533
      ],
      [
        "शा॑न",
        -10.075576792264911
      ],
      [
        "ेव",
        -10.075766974790492
      ],
      [
        "दधुः",
        -10.077369583049048
      ],
      [
        "▁मे॒धा",
        -10.079508752858874
      ],
      [
        "▁सु॒वीरा॑",
        -10.080000999306645
      ],
      [
        "वृ॒ष",
        -10.080030005398658
      ],
      [
        "▁श्रि॒य",
        -10.080219124532718
      ],
      [
        "▁अ॒र्क",
        -10.080649547314462
      ],
      [
        "ु॒र्वी",
        -10.08083279837075
      ],
      [
        "▁त्री",
        -10.080946252374112
      ],
      [
        "ा॒सा",
        -10.081246727695852
      ],
      [
        "▁सन्ति",
        -10.081730034151182
      ],
      [
        "▁शम",
        -10.082185152676844
      ],
      [
        "▁मा॒तरं",
        -10.08264418517266
      ],
      [
        "▁तद॑",
        -10.082663080667963
      ],
      [
        "▁वा॒जिन॑",
        -10.083124739231575
      ],
      [
        "नाय॒",
        -10.0837306581768
      ],
      [
        "घ्न्य",
        -10.083761151804424
      ],
      [
        "▁म॒हद्",
        -10.084495199037391
      ],
      [
        "▁इ॒हा",
        -10.085008322948449
      ],
      [
        "▁दे॑व॒",
        -10.08516943471755
      ],
      [
        "मुप॒",
        -10.08534402655085
      ],
      [
        "स्मै॑",
        -10.086084400179432
      ],
      [
        "॒मव॑",
        -10.086632059375455
      ],
      [
        "▁प॑त",
        -10.08664787772994
      ],
      [
        "▁समि॑",
        -10.086678163748315
      ],
      [
        "▁जन॑",
        -10.086937811427802
      ],
      [
        "यति",
        -10.087168226142548
      ],
      [
        "र्म॒ह",
        -10.087329727449278
      ],
      [
        "▁अति॒",
        -10.087532569463338
      ],
      [
        "▁यदु",
        -10.088860797214387
      ],
      [
        "ेष्व",
        -10.09031219243269
      ],
      [
        "▁स्रु",
        -10.09127744640875
      ],
      [
        "▁इ॒त",
        -10.09140234473692
      ],
      [
        "॒स्मिन्",
        -10.092009368289524
      ],
      [
        "रा॒ण",
        -10.093654812262209
      ],
      [
        "▁द्यु॒म",
        -10.094184745576808
      ],
      [
        "▁होता॑र",
        -10.09438191504464
      ],
      [
        "▁पा॑तु",
        -10.09459872316786
      ],
      [
        "▁वि॒श्वरू॑प",
        -10.09471561356551
      ],
      [
        "▁क्षेत्र",
        -10.095027380514235
      ],
      [
        "▁बल",
        -10.09502895195604
      ],
      [
        "ऽव॒",
        -10.095267232591096
      ],
      [
        "तै",
        -10.09536445226858
      ],
      [
        "▁रा॒ष्ट्रम",
        -10.09553047022574
      ],
      [
        "▁सत्प॑ति",
        -10.096118566419776
      ],
      [
        "▁तप॑सा",
        -10.096345333576622
      ],
      [
        "▁वि॒राज",
        -10.096346462110326
      ],
      [
        "▁प्रचे॑तस",
        -10.09636552722922
      ],
      [
        "▁सखा॒",
        -10.096545355503268
      ],
      [
        "▁शो॒चिषा",
        -10.096560444553967
      ],
      [
        "▁पिबत",
        -10.096859230592882
      ],
      [
        "ासु॑",
        -10.097217658668118
      ],
      [
        "▁तेषा॑",
        -10.097301520291309
      ],
      [
        "नूषत",
        -10.097453594185932
      ],
      [
        "क्राम",
        -10.097579412822505
      ],
      [
        "▁वाजे॑षु",
        -10.097647893571043
      ],
      [
        "▁निर॑",
        -10.097868035230675
      ],
      [
        "्यै॒",
        -10.09795359896302
      ],
      [
        "षो॑",
        -10.098413905111226
      ],
      [
        "▁विश्व॒",
        -10.09887265688186
      ],
      [
        "ुत्त॑र",
        -10.09888880721639
      ],
      [
        "वि॑श",
        -10.099711555534782
      ],
      [
        "वा॑न्",
        -10.099961582450474
      ],
      [
        "▁दक्ष",
        -10.100124750866396
      ],
      [
        "द्वेष",
        -10.100445171281187
      ],
      [
        "दु॒त",
        -10.10072146644304
      ],
      [
        "▁पवस्व",
        -10.100890568547577
      ],
      [
        "▁दि॒वे",
        -10.101139496175294
      ],
      [
        "दन्",
        -10.101206699856125
      ],
      [
        "▁शिक्ष",
        -10.101866193952608
      ],
      [
        "▁ऽऽ",
        -10.102303822736406
      ],
      [
        "गो॒",
        -10.102872050441963
      ],
      [
        "गृह",
        -10.103226887212962
      ],
      [
        "▁तस्थ",
        -10.103628618941052
      ],
      [
        "▁वश",
        -10.103925657591278
      ],
      [
        "▁अ॒न्तर्",
        -10.104212280811264
      ],
      [
        "▁दक्षि॑ण",
        -10.105169120102286
      ],
      [
        "▁व्यन्तु",
        -10.10591173987417
      ],
      [
        "▁आप॑",
        -10.106125152888607
      ],
      [
        "ती॒ना",
        -10.106584810336146
      ],
      [
        "ब्र",
        -10.106720842659698
      ],
      [
        "▁ति॒स्रो",
        -10.10673432830434
      ],
      [
        "▁वात॑",
        -10.107195769616268
      ],
      [
        "ा॑नि॒",
        -10.107496413218051
      ],
      [
        "▁उ॒षस",
        -10.107754374793938
      ],
      [
        "▁दे॒वासो॑",
        -10.107808295333346
      ],
      [
        "▁जग",
        -10.10846856890096
      ],
      [
        "य॒ते",
        -10.108683491519614
      ],
      [
        "▁वसि॑ष्ठ",
        -10.109253413072294
      ],
      [
        "▁तन्नो",
        -10.110177074809004
      ],
      [
        "ज्येष्ठ",
        -10.11049673411882
      ],
      [
        "यन्तु",
        -10.111699934842065
      ],
      [
        "▁मरुत",
        -10.11170296619742
      ],
      [
        "षां॑",
        -10.11222737496303
      ],
      [
        "मू॒तये॑",
        -10.113796256050383
      ],
      [
        "जम्भ",
        -10.113871817013091
      ],
      [
        "▁अ॒स्मान्",
        -10.115327280739155
      ],
      [
        "▁भेष॒जं",
        -10.115370251711363
      ],
      [
        "▁रथो॒",
        -10.116315157774125
      ],
      [
        "▁समु॑",
        -10.116708748908618
      ],
      [
        "द॑सि",
        -10.116845297693771
      ],
      [
        "च॑र",
        -10.117216900159743
      ],
      [
        "▁धियो",
        -10.117325686941289
      ],
      [
        "▁कृण्व",
        -10.117341316684586
      ],
      [
        "मिव",
        -10.119200790772563
      ],
      [
        "थाः",
        -10.1194024511456
      ],
      [
        "▁य॒ज्ञै",
        -10.11996057265562
      ],
      [
        "▁यस्त",
        -10.120961005041137
      ],
      [
        "▁स॒र्प",
        -10.121036915145108
      ],
      [
        "▁सु॑प॒र्ण",
        -10.121102031497006
      ],
      [
        "▁पु॒रोहि॑त",
        -10.12128848451681
      ],
      [
        "▁श्वे॒त",
        -10.121302919190324
      ],
      [
        "▁योनौ",
        -10.12164347558296
      ],
      [
        "▁देवाः",
        -10.121735625283955
      ],
      [
        "▁यातु॒धान",
        -10.12175565854464
      ],
      [
        "ज॒नुष",
        -10.121768483044288
      ],
      [
        "▁श्रव॒स्य",
        -10.121811470764513
      ],
      [
        "ने॒हस",
        -10.1225465798136
      ],
      [
        "न्तो॑",
        -10.12276655076512
      ],
      [
        "▁यच्च॑",
        -10.122948291505686
      ],
      [
        "▁प॒थिभि",
        -10.122969283252967
      ],
      [
        "▁सह॑मान",
        -10.124181856155271
      ],
      [
        "▁अ॒प्स्व",
        -10.12445780156962
      ],
      [
        "यस्व",
        -10.125248881920506
      ],
      [
        "▁ऊ॒तये",
        -10.125436590114202
      ],
      [
        "▁अपा॑",
        -10.125891126768796
      ],
      [
        "▁हरि॒",
        -10.12589302685658
      ],
      [
        "र॑ण्य",
        -10.126210186375076
      ],
      [
        "विद्",
        -10.126737690065529
      ],
      [
        "▁चारु॑",
        -10.126817791007367
      ],
      [
        "ा॒न्य",
        -10.12811271302598
      ],
      [
        "शं॒",
        -10.128357804057089
      ],
      [
        "▁व॒ल",
        -10.128938734424166
      ],
      [
        "नाव॑",
        -10.129084433175748
      ],
      [
        "▁क्व",
        -10.130268068074765
      ],
      [
        "▁पर्व॑त",
        -10.131754316266424
      ],
      [
        "मव॑",
        -10.131778382144876
      ],
      [
        "रूप",
        -10.13357285170986
      ],
      [
        "दुः",
        -10.133589501739062
      ],
      [
        "ि॑ष्ठा",
        -10.134562749569302
      ],
      [
        "क्रत",
        -10.1348816507209
      ],
      [
        "▁गृ॑",
        -10.13548501106404
      ],
      [
        "▁द॒द",
        -10.136037914995224
      ],
      [
        "▁विद",
        -10.13625271145136
      ],
      [
        "ी॑व",
        -10.13638457758763
      ],
      [
        "▁मुञ्च",
        -10.138057058179651
      ],
      [
        "स्तो॒क",
        -10.13877617631008
      ],
      [
        "ू॒र",
        -10.1394383224103
      ],
      [
        "जुष्ट",
        -10.139477300711205
      ],
      [
        "▁दत्त",
        -10.139537993321747
      ],
      [
        "▁द॑दे",
        -10.139863613411348
      ],
      [
        "ऽस्मा",
        -10.139872778466923
      ],
      [
        "▁स॒ख्याय",
        -10.140261486207134
      ],
      [
        "▁पा॒र",
        -10.140411149837467
      ],
      [
        "▁नरो॒",
        -10.140542543960915
      ],
      [
        "न्त॒रा",
        -10.140836058876008
      ],
      [
        "▁सिन्धु",
        -10.141251428113492
      ],
      [
        "शत्र",
        -10.141874273423872
      ],
      [
        "दधातु",
        -10.14202829497578
      ],
      [
        "द्रिव",
        -10.142217106382828
      ],
      [
        "▁ह॒विर्",
        -10.142954169711192
      ],
      [
        "ाम्य",
        -10.143309900116863
      ],
      [
        "॒मिन्द्र॑",
        -10.143811714969983
      ],
      [
        "वृ॒त",
        -10.143911072215452
      ],
      [
        "ु॒द",
        -10.144305701201008
      ],
      [
        "▁नृ॒म्ण",
        -10.144549268381708
      ],
      [
        "कुत्स",
        -10.144917941728997
      ],
      [
        "द्धो",
        -10.145340823555005
      ],
      [
        "▁तो॒क",
        -10.14537645526874
      ],
      [
        "▁पृत॑ना",
        -10.145446888875384
      ],
      [
        "▁कस्मै",
        -10.145488995717876
      ],
      [
        "▁दु॑ह",
        -10.145666621265894
      ],
      [
        "त्वं",
        -10.145680122802268
      ],
      [
        "तूर्",
        -10.145803498316246
      ],
      [
        "▁सह॒स्रिण",
        -10.146743552665376
      ],
      [
        "॒श्विभ्यां",
        -10.146746977538434
      ],
      [
        "▁इ॒त्था",
        -10.14675027254139
      ],
      [
        "▁शतक्रतो",
        -10.1467519129389
      ],
      [
        "▁कृ॑धि",
        -10.146859247588068
      ],
      [
        "॒ष्ठा",
        -10.146920902538657
      ],
      [
        "श्विन",
        -10.147223704743787
      ],
      [
        "▁इ॒न्द्र",
        -10.147412854860145
      ],
      [
        "▁क्षेम",
        -10.147625570189412
      ],
      [
        "▁देहि",
        -10.147651610678952
      ],
      [
        "▁रु॒क्म",
        -10.147874132733374
      ],
      [
        "▁सादय",
        -10.148231370654337
      ],
      [
        "▁शृ॑ण",
        -10.148374838392206
      ],
      [
        "▁मृड",
        -10.148641065305188
      ],
      [
        "▁ज॑हि",
        -10.14868753348972
      ],
      [
        "ाणि॒",
        -10.149013215369166
      ],
      [
        "▁सु॒भगा",
        -10.149142793971508
      ],
      [
        "्यै॑",
        -10.149155873867
      ],
      [
        "▁दे॒वेभ्यो",
        -10.149290706394757
      ],
      [
        "▁द॑धातु",
        -10.149459277106152
      ],
      [
        "▁छन्द॑सा",
        -10.149532249967969
      ],
      [
        "▁शिशु",
        -10.149596118967844
      ],
      [
        "▁चि॒त्",
        -10.149715743039945
      ],
      [
        "पद्य",
        -10.149766921335626
      ],
      [
        "क्व॑",
        -10.149787065068406
      ],
      [
        "ु॒पस्थ",
        -10.149883385560752
      ],
      [
        "ी॑म",
        -10.150056696380386
      ],
      [
        "▁स्व॒यं",
        -10.150965909282748
      ],
      [
        "▁शश्व",
        -10.151245759174913
      ],
      [
        "ा॒स्य",
        -10.151444224974728
      ],
      [
        "▁प्रै",
        -10.151932255514328
      ],
      [
        "स्त्य",
        -10.152740363302426
      ],
      [
        "▁दधात",
        -10.153014808037886
      ],
      [
        "े॒वा",
        -10.154085970859716
      ],
      [
        "े॒ष्वा",
        -10.154683279308797
      ],
      [
        "▁महि॒मा",
        -10.15522604387623
      ],
      [
        "▁ऋष",
        -10.155649731850726
      ],
      [
        "ि॑का",
        -10.156425216070804
      ],
      [
        "▁न्य॑",
        -10.157000591611672
      ],
      [
        "॒क्षा",
        -10.157629757183877
      ],
      [
        "ै॒र",
        -10.157773608269837
      ],
      [
        "प॒थ",
        -10.157846807165022
      ],
      [
        "▁यु॒क्त",
        -10.157998351181622
      ],
      [
        "▁मम॒",
        -10.15928420831003
      ],
      [
        "भि॒र्य",
        -10.161887335352148
      ],
      [
        "क॒र",
        -10.162965484724804
      ],
      [
        "द्भ्यो",
        -10.16385432406004
      ],
      [
        "जाः",
        -10.163966785061069
      ],
      [
        "▁चिद्",
        -10.1643596856664
      ],
      [
        "▁तुवि",
        -10.164583373086977
      ],
      [
        "▁वसा॑न",
        -10.165317234322856
      ],
      [
        "े॑भ्यः",
        -10.165458722322132
      ],
      [
        "ी॒ह",
        -10.166395823339132
      ],
      [
        "धु॑",
        -10.166696930451398
      ],
      [
        "▁ब्र॑ह्म",
        -10.167140325984116
      ],
      [
        "दक्ष",
        -10.167222235320024
      ],
      [
        "▁पि॒तरो॑",
        -10.167282698881149
      ],
      [
        "▁शृण",
        -10.167501528838812
      ],
      [
        "र॒प",
        -10.167555321797526
      ],
      [
        "▁प्र॑थ॒मो",
        -10.168260843342267
      ],
      [
        "मेध",
        -10.168450400873407
      ],
      [
        "रू॒प",
        -10.168987680832132
      ],
      [
        "▁भू॒त्वा",
        -10.16914608752552
      ],
      [
        "द॑ब्ध",
        -10.16932891846812
      ],
      [
        "मा॑ण",
        -10.17079495794826
      ],
      [
        "ग्रे॒",
        -10.17088117996989
      ],
      [
        "▁शु॒न",
        -10.171579898483294
      ],
      [
        "▁प॒र्जन्य",
        -10.171902957807308
      ],
      [
        "▁प॑रि॒",
        -10.172101510686693
      ],
      [
        "▁शो॒चि",
        -10.17256500291673
      ],
      [
        "▁वन॒स्पती",
        -10.172630723980957
      ],
      [
        "▁साम॑",
        -10.172721607133544
      ],
      [
        "▁शुक्लयजुः",
        -10.173058091588585
      ],
      [
        "▁भे॑ष॒ज",
        -10.173058098352447
      ],
      [
        "▁क्र॒व्याद",
        -10.173091874113195
      ],
      [
        "▁वी॒रुध",
        -10.173092516627086
      ],
      [
        "म॒क्षू",
        -10.173110182786566
      ],
      [
        "▁म॒घवा॒",
        -10.17311078437194
      ],
      [
        "▁तेज॑सा",
        -10.173160481931736
      ],
      [
        "▁विष्ण॑वे",
        -10.173168892511082
      ],
      [
        "▁भु॑व",
        -10.173515772006462
      ],
      [
        "▁उ॒र्व",
        -10.173567446946914
      ],
      [
        "▁द॒त्त",
        -10.17374582319038
      ],
      [
        "▁शुष्ण",
        -10.17375854141539
      ],
      [
        "▁मंहि॑ष्ठ",
        -10.173883219041606
      ],
      [
        "▁सर॑स्वती॒",
        -10.174301946240796
      ],
      [
        "न्मा",
        -10.174495128740476
      ],
      [
        "भा॑",
        -10.174826648731768
      ],
      [
        "दि॒त्या",
        -10.175180421404452
      ],
      [
        "▁अधा॒",
        -10.175576650487896
      ],
      [
        "च्छा॒",
        -10.176504550331362
      ],
      [
        "▁पु॒रूणि",
        -10.177124213221289
      ],
      [
        "▁सिन्ध",
        -10.178149581010942
      ],
      [
        "▁वर्च॑से",
        -10.178205566669051
      ],
      [
        "॒तोऽ",
        -10.178225284955012
      ],
      [
        "ग्रे॑",
        -10.179246509106962
      ],
      [
        "▁स॒जू",
        -10.17924721086143
      ],
      [
        "य॒न्ता",
        -10.179491281758628
      ],
      [
        "▁एत",
        -10.182015715145308
      ],
      [
        "॒स्तेन",
        -10.182346223149985
      ],
      [
        "▁ऊर्ज",
        -10.18258995208204
      ],
      [
        "॑वन्तु",
        -10.182805922572449
      ],
      [
        "▁य॒ज्ञा",
        -10.18340083681066
      ],
      [
        "पि॒त्व",
        -10.18346160282406
      ],
      [
        "श्रि",
        -10.184389365547876
      ],
      [
        "▁ह॒विर",
        -10.184545144105062
      ],
      [
        "▁युज्य",
        -10.18486535797289
      ],
      [
        "रु॒षस",
        -10.185720481327488
      ],
      [
        "▁भूष",
        -10.1858259240163
      ],
      [
        "▁समा॒न",
        -10.186694011390882
      ],
      [
        "ि॒यं",
        -10.186885615864709
      ],
      [
        "मघ",
        -10.18692555000812
      ],
      [
        "▁यज॑मानस्य",
        -10.186950115830443
      ],
      [
        "ो॒ऽसि",
        -10.187000658261116
      ],
      [
        "▁ज्या",
        -10.187333580644555
      ],
      [
        "▁नभ॑न्तामन्य॒के",
        -10.187724930279291
      ],
      [
        "▁पय॑सा",
        -10.187850766052604
      ],
      [
        "॒युर",
        -10.18898803959584
      ],
      [
        "▁स॒धस्थे॑",
        -10.18938921430598
      ],
      [
        "▁शृणु",
        -10.189804188647065
      ],
      [
        "श्चि॒त्र",
        -10.19003346849123
      ],
      [
        "▁जना॑य",
        -10.190102800115085
      ],
      [
        "रिण",
        -10.191004875518203
      ],
      [
        "▁हिन्व",
        -10.192061923316937
      ],
      [
        "म॑स्य",
        -10.193328332949504
      ],
      [
        "▁वृण",
        -10.193328456650544
      ],
      [
        "▁महि॒मान",
        -10.194923953514142
      ],
      [
        "ेन्द्रं",
        -10.195567032355068
      ],
      [
        "▁भूमि॑",
        -10.196059667199131
      ],
      [
        "ुप",
        -10.196288282478877
      ],
      [
        "▁अ॑ध्व॒र",
        -10.19642491513469
      ],
      [
        "▁अन्व",
        -10.197135708474974
      ],
      [
        "ाग॑",
        -10.197471550972782
      ],
      [
        "▁जा॒तवे॑दाः",
        -10.19976010470402
      ],
      [
        "काण्वसंहिताया",
        -10.200085118615316
      ],
      [
        "▁योनि॒रिन्द्रा॑य",
        -10.200085121496253
      ],
      [
        "॒ऽसीन्द्रा॑य",
        -10.200085133766835
      ],
      [
        "मुष्मै",
        -10.200085580303089
      ],
      [
        "▁उप॑हूत",
        -10.200085644608109
      ],
      [
        "▁श्लोक",
        -10.20008589617932
      ],
      [
        "▁ध॒र्ता",
        -10.200090187224834
      ],
      [
        "▁ऊ॒र्मि",
        -10.200091840778388
      ],
      [
        "▁गिर्वण",
        -10.200098807667985
      ],
      [
        "▁ज॒जान",
        -10.200128542977838
      ],
      [
        "▁हु॒वे",
        -10.200129651894922
      ],
      [
        "▁वयो॒धस",
        -10.200159098151424
      ],
      [
        "▁गृह्णामि",
        -10.200257690512396
      ],
      [
        "▁चक्षु॑",
        -10.200402273517804
      ],
      [
        "सु॒वन",
        -10.200430531867925
      ],
      [
        "▁प॒शव",
        -10.200823825373057
      ],
      [
        "▁धीरा॑",
        -10.200869978427628
      ],
      [
        "▁दृ॒शे",
        -10.200928425653313
      ],
      [
        "▁स॑मे",
        -10.202019483178212
      ],
      [
        "▁सोमा॑य",
        -10.202173840274334
      ],
      [
        "▁दश",
        -10.202256217219764
      ],
      [
        "य॑से",
        -10.202386505971186
      ],
      [
        "▁हर्य॒त",
        -10.202753523542912
      ],
      [
        "ेभि॑",
        -10.202946936982851
      ],
      [
        "नाय",
        -10.202953889562968
      ],
      [
        "व॑ती",
        -10.20308636931589
      ],
      [
        "▁वृषणा",
        -10.203197755235616
      ],
      [
        "ज्योति॑षा॒",
        -10.204018204233378
      ],
      [
        "▁स्यो॒ना",
        -10.20454860166143
      ],
      [
        "▁नपा॑त",
        -10.2048471995892
      ],
      [
        "▁होता॑रं",
        -10.205064297890743
      ],
      [
        "॒र्कै",
        -10.205097085797458
      ],
      [
        "▁महि॒त्वा",
        -10.20509892302401
      ],
      [
        "▁दर्श॒त",
        -10.205188117388246
      ],
      [
        "▁प॑र",
        -10.205808831335586
      ],
      [
        "▁वि॒द्मा",
        -10.205825939735517
      ],
      [
        "▁मन॑वे",
        -10.205964514803624
      ],
      [
        "▁उ॑प",
        -10.205980703629065
      ],
      [
        "▁दिश॒",
        -10.206370180885887
      ],
      [
        "ू॒र्ज",
        -10.20657066018282
      ],
      [
        "▁धारय",
        -10.20734809196526
      ],
      [
        "▁पव॑मानो",
        -10.207618244484651
      ],
      [
        "ासि॒",
        -10.208106219735264
      ],
      [
        "▁बृ॒हद",
        -10.208559992604131
      ],
      [
        "▁मत्स॒र",
        -10.209198840933997
      ],
      [
        "ॠ",
        -10.210194631569948
      ],
      [
        "▁सर्वा॑न्",
        -10.210338073660433
      ],
      [
        "्नु",
        -10.210670246735225
      ],
      [
        "जः",
        -10.211499855017102
      ],
      [
        "▁स॑हस",
        -10.211567572651248
      ],
      [
        "▁अ॒न्तरि॑क्षे",
        -10.211958151133633
      ],
      [
        "ह्या",
        -10.2120817084549
      ],
      [
        "ध॑र",
        -10.212131878943069
      ],
      [
        "ि॒त्वा",
        -10.212238298269456
      ],
      [
        "वरुण",
        -10.21268934595524
      ],
      [
        "▁रथा॑",
        -10.212870681149596
      ],
      [
        "ज॑स्र",
        -10.214009154395477
      ],
      [
        "▁नाभि",
        -10.214223720255706
      ],
      [
        "ग॑म",
        -10.214491704256153
      ],
      [
        "सा॒न",
        -10.215668198254518
      ],
      [
        "॒हम",
        -10.215890919768254
      ],
      [
        "त्सोम",
        -10.217034156730596
      ],
      [
        "▁क्रतु",
        -10.217444095315663
      ],
      [
        "ीमहि",
        -10.217761873336643
      ],
      [
        "▁यत्रा॒",
        -10.218081189478829
      ],
      [
        "▁अव॒",
        -10.21814287029564
      ],
      [
        "▁एह",
        -10.218284991004758
      ],
      [
        "▁जान",
        -10.218589047991276
      ],
      [
        "हुः",
        -10.220168688551803
      ],
      [
        "▁पृ॒ष्ठ",
        -10.221158467920796
      ],
      [
        "ऽय",
        -10.221392193848228
      ],
      [
        "॒न्मा",
        -10.22148426129832
      ],
      [
        "ध्रि",
        -10.222276388276663
      ],
      [
        "▁मि॒त्रावरु॑णा",
        -10.2226686287224
      ],
      [
        "माँ",
        -10.222821385299287
      ],
      [
        "त्यो॒",
        -10.22300868317463
      ],
      [
        "े॑ति",
        -10.223080509796857
      ],
      [
        "धा॒न",
        -10.22356882119126
      ],
      [
        "▁शश्व॑त",
        -10.223573999796448
      ],
      [
        "▁त्वो",
        -10.224611149523644
      ],
      [
        "र्विश्व",
        -10.224869015411734
      ],
      [
        "▁भव॑त",
        -10.225163516354892
      ],
      [
        "ै॑र",
        -10.226284652922152
      ],
      [
        "मर्त्य",
        -10.226428762558855
      ],
      [
        "ब्रुव",
        -10.226580208323623
      ],
      [
        "▁मम",
        -10.227119016453006
      ],
      [
        "र्बा॒हुभ्यां",
        -10.227862896398534
      ],
      [
        "▁सुष्टु॒ति",
        -10.22787157978997
      ],
      [
        "▁मृधो",
        -10.227959083617288
      ],
      [
        "▁सखि॑भ्य",
        -10.227973779560395
      ],
      [
        "▁वृ॑णीमहे",
        -10.22803518993517
      ],
      [
        "▁प्रजा॒नन्",
        -10.228079597074974
      ],
      [
        "▁पृतना",
        -10.228110882952397
      ],
      [
        "▁स्तो॒ता",
        -10.228129754258154
      ],
      [
        "▁शू॒ष",
        -10.228133451167151
      ],
      [
        "▁स॑मा॒न",
        -10.22853317748188
      ],
      [
        "िति॑",
        -10.22872325208421
      ],
      [
        "▁धर्म॑णा",
        -10.229034426116186
      ],
      [
        "▁मधु॑ना",
        -10.229203272424623
      ],
      [
        "॒प्स्व",
        -10.229243314521993
      ],
      [
        "▁भ॑ज",
        -10.229543769444527
      ],
      [
        "ी॑यस",
        -10.229639220236407
      ],
      [
        "▁वरु॑णः",
        -10.229822255396826
      ],
      [
        "▁अ॒मृता॑",
        -10.229984365828622
      ],
      [
        "▁अन॑",
        -10.230105375323737
      ],
      [
        "▁त्वद",
        -10.230781591366494
      ],
      [
        "▁व्रात्य",
        -10.231483496785057
      ],
      [
        "भ्यश्च",
        -10.23148441942989
      ],
      [
        "▁सेना॑",
        -10.231702270228803
      ],
      [
        "▁अच्छा॒",
        -10.232476149891166
      ],
      [
        "▁मध्वो",
        -10.23297223489394
      ],
      [
        "॒मंह॑स",
        -10.23302172030544
      ],
      [
        "▁यजि॑ष्ठ",
        -10.23311664224888
      ],
      [
        "▁सा॒तये",
        -10.233935641898494
      ],
      [
        "▁दिव॑",
        -10.23401975019526
      ],
      [
        "त्सा",
        -10.234156376761746
      ],
      [
        "▁अस॑",
        -10.234599329879885
      ],
      [
        "▁नामा",
        -10.234731941134964
      ],
      [
        "▁मध्व॑",
        -10.234839565591654
      ],
      [
        "▁वर्ण",
        -10.23497367334565
      ],
      [
        "श्वा॒",
        -10.235554548461367
      ],
      [
        "योग",
        -10.23580958590512
      ],
      [
        "▁वरु॑णं",
        -10.237281296812634
      ],
      [
        "▁प्रति",
        -10.238144083157716
      ],
      [
        "▁पा॒यु",
        -10.238278159829113
      ],
      [
        "▁स॒ख्य",
        -10.23904536000017
      ],
      [
        "▁वे॒न",
        -10.239235484996588
      ],
      [
        "▁म॒रुता",
        -10.239386049811696
      ],
      [
        "▁शु॒क्रा",
        -10.239591105031552
      ],
      [
        "▁मघवन्",
        -10.24068938729765
      ],
      [
        "▁वरु॑ण॒",
        -10.241035655463104
      ],
      [
        "▁पुना॒न",
        -10.241433969011926
      ],
      [
        "▁बृह॒स्पतिः",
        -10.24160385328544
      ],
      [
        "विव",
        -10.242608663761452
      ],
      [
        "▁पा॒त",
        -10.242879789848622
      ],
      [
        "▁ए॒तत्",
        -10.243412248639284
      ],
      [
        "▁शोच",
        -10.24347901363256
      ],
      [
        "ग॑न्म",
        -10.24360211137154
      ],
      [
        "▁प्र॑ति",
        -10.244435114443164
      ],
      [
        "▁सु॒क्रतु॑",
        -10.244443268016374
      ],
      [
        "बि॑भ",
        -10.244972264254018
      ],
      [
        "िण॑",
        -10.24501837978594
      ],
      [
        "िन्द्रो॑",
        -10.245030595196692
      ],
      [
        "हु॑त",
        -10.245606537056378
      ],
      [
        "▁वै॒श्वा॒न॒र",
        -10.245826028688734
      ],
      [
        "▁धर्म॑",
        -10.246007029446282
      ],
      [
        "व॒न",
        -10.24605681374138
      ],
      [
        "▁सहो॑",
        -10.246115287140745
      ],
      [
        "▁यु॒क्ता",
        -10.246745717870946
      ],
      [
        "▁अ॒क्ष",
        -10.247649259542218
      ],
      [
        "णाम्",
        -10.247932580164678
      ],
      [
        "▁हे॒ति",
        -10.247956126695083
      ],
      [
        "ेभ्यो॑",
        -10.247992006003107
      ],
      [
        "य॒ती",
        -10.24820404411776
      ],
      [
        "▁दह",
        -10.24831939520698
      ],
      [
        "ं॒शु",
        -10.248399872940404
      ],
      [
        "ै॒ष",
        -10.248971223818817
      ],
      [
        "िन्दु",
        -10.249481307094449
      ],
      [
        "ी॒य",
        -10.250019547078576
      ],
      [
        "रन्ति",
        -10.25023058257337
      ],
      [
        "गाः",
        -10.250495317449705
      ],
      [
        "▁विश्व॑स्मा॒द",
        -10.250565366639089
      ],
      [
        "▁यद॑स्य",
        -10.251253313111604
      ],
      [
        "▁पञ्च॒",
        -10.251667324158223
      ],
      [
        "म॑रुत",
        -10.251807994661547
      ],
      [
        "▁दु॒ह",
        -10.252288054699171
      ],
      [
        "▁अ॒र्य",
        -10.252790714300785
      ],
      [
        "▁नाभि॑",
        -10.253281979285198
      ],
      [
        "▁प्रि॒यो",
        -10.25332637004792
      ],
      [
        "▁भ॒व",
        -10.253954645445786
      ],
      [
        "न्ध॑स",
        -10.255669412186922
      ],
      [
        "▁पूरु॑ष",
        -10.256434343507989
      ],
      [
        "▁ती॒व्र",
        -10.256435724942683
      ],
      [
        "▁स॒हस्र॑धार",
        -10.256454625215056
      ],
      [
        "▁दु॒ष्टर",
        -10.25651936161665
      ],
      [
        "▁यविष्ठ",
        -10.256525473650628
      ],
      [
        "▁द्विष॒त",
        -10.2565640459024
      ],
      [
        "▁पाशा॑न्",
        -10.256610233945732
      ],
      [
        "▁मु॑ञ्च",
        -10.2566151047772
      ],
      [
        "स्त॒नू",
        -10.256904483819357
      ],
      [
        "▁सा॑दय",
        -10.256918185330989
      ],
      [
        "▁पाशा॒न्",
        -10.256937115160888
      ],
      [
        "▁ऊ॒र्ज",
        -10.257028452454882
      ],
      [
        "▁स्या",
        -10.257086306297197
      ],
      [
        "▁स॒मत्सु",
        -10.257161764768762
      ],
      [
        "▁क्षी॒र",
        -10.257399954503336
      ],
      [
        "▁रेतो",
        -10.25741995872316
      ],
      [
        "मु॒ञ्च",
        -10.257591418390772
      ],
      [
        "ऽश्विनो",
        -10.257663848462574
      ],
      [
        "▁दध॑त",
        -10.25782940586596
      ],
      [
        "▁इन्द्रे॑ण",
        -10.257962928086634
      ],
      [
        "▁पा॑हि",
        -10.2580246979178
      ],
      [
        "▁प्राची",
        -10.258385956509311
      ],
      [
        "▁पु॑न",
        -10.25907758520761
      ],
      [
        "▁इषु",
        -10.259712124695383
      ],
      [
        "मा॒त",
        -10.259772715638029
      ],
      [
        "▁जना॑नां",
        -10.260724549775288
      ],
      [
        "▁उ॒षा",
        -10.261223453248842
      ],
      [
        "▁इ॒ष्ट",
        -10.26136003690948
      ],
      [
        "▁रुच",
        -10.261417147527066
      ],
      [
        "▁अ॒प्सु",
        -10.261760035204656
      ],
      [
        "ेन्द्रो॑",
        -10.261998323398346
      ],
      [
        "▁अम॑र्त्य",
        -10.262667800583452
      ],
      [
        "▁सुवि॒ताय",
        -10.26295627628753
      ],
      [
        "▁जुषा॒ण",
        -10.263040230752823
      ],
      [
        "▁पि॒तरो",
        -10.263402032120156
      ],
      [
        "▁स्ते॒न",
        -10.26564140622603
      ],
      [
        "▁बृह॒स्पति॑र्",
        -10.265773875708158
      ],
      [
        "सु॒र्य",
        -10.266160190197771
      ],
      [
        "ि॒मा",
        -10.266268438511464
      ],
      [
        "▁प्राव॑",
        -10.266604672465222
      ],
      [
        "▁अ॑भि॒",
        -10.267043072201028
      ],
      [
        "▁ताँ",
        -10.269726531929756
      ],
      [
        "▁मत्स",
        -10.270066776729829
      ],
      [
        "▁दू॒रे",
        -10.27022621558153
      ],
      [
        "▁स॒जोष॑स",
        -10.27030728558621
      ],
      [
        "दा॑भ्य",
        -10.270377908743756
      ],
      [
        "च्छन्द",
        -10.27132343087614
      ],
      [
        "द्रा॒",
        -10.271423208765423
      ],
      [
        "भ्या॒",
        -10.271961890051818
      ],
      [
        "क्षि॑त",
        -10.272747407734071
      ],
      [
        "▁प्राण",
        -10.273095649721654
      ],
      [
        "▁आहु॑त",
        -10.27333888218703
      ],
      [
        "▁वा॒जिनो",
        -10.2748406745796
      ],
      [
        "▁असु॑र",
        -10.275085458393797
      ],
      [
        "▁वृ॑ष",
        -10.275273627384056
      ],
      [
        "ुप॒",
        -10.275759786379336
      ],
      [
        "रिष॑",
        -10.276672590134655
      ],
      [
        "▁बोध",
        -10.277758653680348
      ],
      [
        "▁दू",
        -10.279041747879685
      ],
      [
        "द॑त्त",
        -10.27960209256729
      ],
      [
        "म॒ना",
        -10.27961982980445
      ],
      [
        "पा॒न",
        -10.279748503202889
      ],
      [
        "वि॒ह",
        -10.27991933202608
      ],
      [
        "॒मप॑",
        -10.280807744938356
      ],
      [
        "▁रक्षो॒",
        -10.281050196763603
      ],
      [
        "▁शिश",
        -10.28216847953412
      ],
      [
        "रि॒त",
        -10.282234727813298
      ],
      [
        "मु॒षस",
        -10.282266499074602
      ],
      [
        "▁रज॑सो",
        -10.284037043485844
      ],
      [
        "▁अत्र॑",
        -10.284444276343072
      ],
      [
        "वि॑ष्ट",
        -10.284987097119634
      ],
      [
        "▁बलं",
        -10.285018142811928
      ],
      [
        "▁हन",
        -10.285161679298186
      ],
      [
        "▁चर॑न्त",
        -10.285369952799217
      ],
      [
        "दि॑तिर्",
        -10.28537285435962
      ],
      [
        "॒ग्निर",
        -10.285399756783129
      ],
      [
        "▁सुवृ॒क्ति",
        -10.285846098689465
      ],
      [
        "ब॑भूव",
        -10.285846170856512
      ],
      [
        "▁स्पा॒र्ह",
        -10.285846537632564
      ],
      [
        "▁सध॒माद",
        -10.285849529621252
      ],
      [
        "▁क्रु॒द्ध",
        -10.285850007983598
      ],
      [
        "▁श्र॒द्धा",
        -10.285857281133584
      ],
      [
        "▁स्वसा॑र",
        -10.285866321804871
      ],
      [
        "▁ब्रू॑",
        -10.28588766806055
      ],
      [
        "▁गुहा॑",
        -10.285896864992244
      ],
      [
        "▁प्र॒दिव",
        -10.286114930808786
      ],
      [
        "▁रजां॑सि",
        -10.286344011263878
      ],
      [
        "▁कृ॒णव",
        -10.286370775248798
      ],
      [
        "▁मृ॒ळ",
        -10.286493417491226
      ],
      [
        "▁रक्षां॑सि",
        -10.286506221673294
      ],
      [
        "▁दस्रा",
        -10.286636512151484
      ],
      [
        "▁मनु॑षो",
        -10.286787600871586
      ],
      [
        "▁नर॒",
        -10.28700397709115
      ],
      [
        "त्यै",
        -10.287027811371711
      ],
      [
        "▁ज॑नास",
        -10.287074256210651
      ],
      [
        "▁कत॒म",
        -10.28717610178435
      ],
      [
        "गृह्ण",
        -10.287252983440563
      ],
      [
        "▁आ॒रे",
        -10.287456091891045
      ],
      [
        "▁घो॒र",
        -10.287594919472038
      ],
      [
        "▁वृष्णे",
        -10.287884212453871
      ],
      [
        "▁जोष",
        -10.287955799478873
      ],
      [
        "▁क॒वयो",
        -10.288004980554485
      ],
      [
        "जुष",
        -10.288017223514949
      ],
      [
        "॒श्चा",
        -10.288205996510856
      ],
      [
        "ष्मा॒",
        -10.288285234807349
      ],
      [
        "वा॒जिन",
        -10.288322173763838
      ],
      [
        "स्मिन्",
        -10.288739223075057
      ],
      [
        "▁द्यौर्",
        -10.288979632611058
      ],
      [
        "▁पञ्च",
        -10.289071010727676
      ],
      [
        "▁ग॑न्ध॒र्व",
        -10.289128351540455
      ],
      [
        "॑चि",
        -10.289213586939244
      ],
      [
        "▁वि॒दथे॑षु",
        -10.289388628824256
      ],
      [
        "क्ष्ण",
        -10.290062678986358
      ],
      [
        "ादि॒त्य",
        -10.2918428824813
      ],
      [
        "▁अज",
        -10.292352646169912
      ],
      [
        "▁कर्ण",
        -10.29266394160475
      ],
      [
        "▁यच्छतु",
        -10.29283017575353
      ],
      [
        "▁चोद",
        -10.29421249318722
      ],
      [
        "▁वी॒तये",
        -10.294322984541957
      ],
      [
        "रु॒ज",
        -10.29455249439436
      ],
      [
        "▁द्यु",
        -10.295093547465708
      ],
      [
        "▁द॑धे",
        -10.295608003984311
      ],
      [
        "ज्यते",
        -10.29567857297034
      ],
      [
        "बन्ध",
        -10.2959622403083
      ],
      [
        "▁वृ॒त्राणि",
        -10.296309855498349
      ],
      [
        "▁वा॒जिनं",
        -10.296583052405538
      ],
      [
        "▁सद॑न",
        -10.296794459482678
      ],
      [
        "▁सुव",
        -10.296939351135268
      ],
      [
        "स्तव॑",
        -10.29712523351075
      ],
      [
        "स्वती",
        -10.297300631952329
      ],
      [
        "ुषी",
        -10.297508436010055
      ],
      [
        "च्छ्र",
        -10.298192802474029
      ],
      [
        "िन्द्र॑स्य",
        -10.298737207649728
      ],
      [
        "▁त्ये",
        -10.299036377597558
      ],
      [
        "श्चिद",
        -10.299958622552756
      ],
      [
        "च्चा",
        -10.300142478844734
      ],
      [
        "॒नाय॑",
        -10.300156924822424
      ],
      [
        "र्भू",
        -10.300230366174327
      ],
      [
        "▁द्वे",
        -10.300262900357776
      ],
      [
        "ऽनु॒",
        -10.300502514683496
      ],
      [
        "▁न॑य",
        -10.300618201188824
      ],
      [
        "ष्टौ",
        -10.301092763537364
      ],
      [
        "ध्व॑न",
        -10.30118705418269
      ],
      [
        "दि॒व",
        -10.301301347693377
      ],
      [
        "▁भा॒नुना",
        -10.302610032509351
      ],
      [
        "▁पर्व॑ते",
        -10.30262974201684
      ],
      [
        "▁भूमि",
        -10.302769876427607
      ],
      [
        "क्री",
        -10.303251348319243
      ],
      [
        "▁सूर्यो॒",
        -10.303806190762137
      ],
      [
        "▁ब्रव",
        -10.303818745824042
      ],
      [
        "ृ॒ता",
        -10.3043157837639
      ],
      [
        "सी॑द",
        -10.304915882091734
      ],
      [
        "▁पार्थि॑वा",
        -10.305897184018509
      ],
      [
        "▁पू॒र्",
        -10.307481945265137
      ],
      [
        "▁अ॑व",
        -10.307526368400897
      ],
      [
        "▁वर्धय",
        -10.307687010685434
      ],
      [
        "▁केन",
        -10.307689967950637
      ],
      [
        "ञ्जि",
        -10.308312510808529
      ],
      [
        "य॑ति",
        -10.30899042817502
      ],
      [
        "ेन्द्र॑स्य",
        -10.309000612374462
      ],
      [
        "▁मध्ये॑",
        -10.309993188002514
      ],
      [
        "▁म॒घवा॑न",
        -10.310684559907251
      ],
      [
        "ोऽधि॑",
        -10.311382792556405
      ],
      [
        "म॒र्क",
        -10.312149532424582
      ],
      [
        "▁वसू॑नां",
        -10.312626148925965
      ],
      [
        "॒स्त्वम",
        -10.313581723182557
      ],
      [
        "▁नुद",
        -10.313857791149612
      ],
      [
        "शे॒",
        -10.315599836712986
      ],
      [
        "॒र्क",
        -10.315885031987207
      ],
      [
        "▁गृण॒त",
        -10.3161495143721
      ],
      [
        "▁धि॒षणा",
        -10.316152331815324
      ],
      [
        "▁वावृधा॒न",
        -10.316170757979686
      ],
      [
        "▁क्रत्वा॑",
        -10.316179084223329
      ],
      [
        "▁क्रत्वा॒",
        -10.316188599490475
      ],
      [
        "▁ईड्य",
        -10.316212077499546
      ],
      [
        "▁वि॒श्वायु",
        -10.316262969815376
      ],
      [
        "▁ग्रावा॑ण",
        -10.316442842258883
      ],
      [
        "▁सर॑स्वत्या",
        -10.316541202720831
      ],
      [
        "▁दधिरे",
        -10.316559736264026
      ],
      [
        "▁म॑नु॒ष्य",
        -10.316628127035772
      ],
      [
        "▁रत्नं",
        -10.317030477514315
      ],
      [
        "▁शृण्व",
        -10.317195881356954
      ],
      [
        "▁श्रु॒ध",
        -10.317233027319464
      ],
      [
        "▁सू॒क्त",
        -10.31742133208242
      ],
      [
        "▁द्वि॒ता",
        -10.317662485502112
      ],
      [
        "धायि",
        -10.317795661033648
      ],
      [
        "॒शो",
        -10.318244548589298
      ],
      [
        "▁नृ॒णा",
        -10.318288668103826
      ],
      [
        "▁अ॒स्माँ",
        -10.31829738825274
      ],
      [
        "▁त्वाम॑ग्ने",
        -10.318324096807672
      ],
      [
        "▁गावो",
        -10.318339173655453
      ],
      [
        "ु॑त्त॒म",
        -10.318578311372976
      ],
      [
        "द॒धे",
        -10.31859818775013
      ],
      [
        "▁वित॑त",
        -10.318661265334084
      ],
      [
        "▁येना॑",
        -10.319329944137635
      ],
      [
        "▁अ॒ना॒",
        -10.320158238136145
      ],
      [
        "▁युवा॑न",
        -10.3202160378367
      ],
      [
        "▁त्वया॒",
        -10.320428090715025
      ],
      [
        "▁दाश",
        -10.320493989119658
      ],
      [
        "▁ज॑य",
        -10.3209574414064
      ],
      [
        "भ्या॑म",
        -10.32108136143928
      ],
      [
        "▁यत्र",
        -10.321653478008711
      ],
      [
        "▁शर्म॒",
        -10.321681039195736
      ],
      [
        "ह॑र",
        -10.322096296044228
      ],
      [
        "मुद",
        -10.322180266395865
      ],
      [
        "स्त्री",
        -10.322465163137716
      ],
      [
        "▁सेध",
        -10.323026825076411
      ],
      [
        "▁सा॒त",
        -10.324134014544544
      ],
      [
        "▁शत",
        -10.324535053274897
      ],
      [
        "▁श्ये॒नो",
        -10.324586934702369
      ],
      [
        "▁अन्त",
        -10.32475274349242
      ],
      [
        "▁पयो॑",
        -10.324850376942443
      ],
      [
        "▁मां",
        -10.32563434634543
      ],
      [
        "▁ऊ॒र्ध्वा",
        -10.32681104788935
      ],
      [
        "▁पितर",
        -10.32772043369448
      ],
      [
        "्णा",
        -10.327978657246256
      ],
      [
        "स्कृत",
        -10.328591177571912
      ],
      [
        "▁व्र॒ता",
        -10.329308930942329
      ],
      [
        "▁कर्त",
        -10.329559122223438
      ],
      [
        "▁तस्मि॑न्",
        -10.329693492105235
      ],
      [
        "▁भूमिं",
        -10.329747606373685
      ],
      [
        "▁तस्या॑",
        -10.329856728792986
      ],
      [
        "▁भा॒नु",
        -10.32992455748531
      ],
      [
        "▁गो॒ष्ठ",
        -10.329931646640071
      ],
      [
        "अ",
        -10.330098319539044
      ],
      [
        "▁शु॒क्रं",
        -10.330549688529944
      ],
      [
        "▁सहो॒",
        -10.330806470553789
      ],
      [
        "मानो",
        -10.331165796835643
      ],
      [
        "▁भूत्",
        -10.331235162395778
      ],
      [
        "ेक॒",
        -10.331359554559713
      ],
      [
        "▁तेभ्यो",
        -10.331580997637683
      ],
      [
        "श्वं॒",
        -10.33196171330359
      ],
      [
        "सूर्य",
        -10.332167777331533
      ],
      [
        "िनी॑",
        -10.33231536925691
      ],
      [
        "▁अपा",
        -10.3328142546209
      ],
      [
        "ऽश्व",
        -10.33376740253778
      ],
      [
        "ेन्द्र॒",
        -10.334052384438907
      ],
      [
        "▁दि॒शे",
        -10.334725477408996
      ],
      [
        "▁गवां",
        -10.33574776002924
      ],
      [
        "लो॒क",
        -10.337383355479355
      ],
      [
        "▁द्याव",
        -10.337419142317044
      ],
      [
        "▁पर्ष",
        -10.337530534980878
      ],
      [
        "▁बृह॒स्पतिं",
        -10.337565458619974
      ],
      [
        "द्रि॑भि",
        -10.338318823043938
      ],
      [
        "▁जना॑नाम",
        -10.338397751178167
      ],
      [
        "धन",
        -10.338676369960204
      ],
      [
        "▁हु॑वे",
        -10.339351566933033
      ],
      [
        "र॑न्त",
        -10.33971305160071
      ],
      [
        "न्दो",
        -10.34000936705232
      ],
      [
        "▁व्र॒तानि",
        -10.340616450353338
      ],
      [
        "म॒मृत",
        -10.340622914181363
      ],
      [
        "न्महि",
        -10.340823508245062
      ],
      [
        "▁लो",
        -10.3409193714706
      ],
      [
        "भा॒ग",
        -10.34116021904313
      ],
      [
        "▁दुर्",
        -10.341232176158218
      ],
      [
        "▁य॒ज्ञिया॑",
        -10.342403412264884
      ],
      [
        "ङ",
        -10.342584126464285
      ],
      [
        "स॑त्",
        -10.342737890065472
      ],
      [
        "▁योनि॑",
        -10.342761648190848
      ],
      [
        "ू॑ष",
        -10.343189267829064
      ],
      [
        "ृ॒णो",
        -10.34346473187146
      ],
      [
        "▁बृ॑ह॒त",
        -10.3440271652597
      ],
      [
        "▁गृ॒णन्त",
        -10.344652646202183
      ],
      [
        "▁इन्द्रः",
        -10.345054464860077
      ],
      [
        "॒न्वा",
        -10.345237717198309
      ],
      [
        "ाना॑म",
        -10.345624292273945
      ],
      [
        "▁तन्न",
        -10.345997726743304
      ],
      [
        "ष्टे॑",
        -10.34697380596537
      ],
      [
        "▁पुन॑र",
        -10.34724990151629
      ],
      [
        "▁पृ॒त्सु",
        -10.347425033190667
      ],
      [
        "▁दा॒वने",
        -10.347435469443427
      ],
      [
        "▁प॑रा॒वत",
        -10.347436771862446
      ],
      [
        "▁ऋ॒भु",
        -10.347439739445711
      ],
      [
        "▁र॒थी",
        -10.347467906831657
      ],
      [
        "▁रात्रि",
        -10.34746833393127
      ],
      [
        "▁कल्पता॒",
        -10.347488458402983
      ],
      [
        "गि॒र",
        -10.347505284170714
      ],
      [
        "▁वि॑वास",
        -10.34760336923378
      ],
      [
        "दा॒स",
        -10.347714882230466
      ],
      [
        "▁वाजा॑न्",
        -10.348176839777253
      ],
      [
        "▁यत्रा॑",
        -10.348222779040036
      ],
      [
        "▁अथो॑",
        -10.349248660809504
      ],
      [
        "▁द॒स्म",
        -10.349514806421706
      ],
      [
        "▁परी",
        -10.349694021703264
      ],
      [
        "यात्",
        -10.350762134562093
      ],
      [
        "ग्रं",
        -10.351190559894176
      ],
      [
        "यति॒",
        -10.351312976197244
      ],
      [
        "▁आ॑दि॒त्य",
        -10.351525966479992
      ],
      [
        "▁नृत॑म",
[...]
