{"<eos>":0,"<RIG>":1,"<YAJUR>":2,"<ATHARVA>":3,"!":4,"\"":5,"#":6,"$":7,"%":8,"&":9,"'":10,"(":11,")":12,"*":13,"+":14,",":15,"-":16,".":17,"/":18,"0":19,"1":20,"2":21,"3":22,"4":23,"5":24,"6":25,"7":26,"8":27,"9":28,":":29,";":30,"<":31,"=":32,">":33,"?":34,"@":35,"A":36,"B":37,"C":38,"D":39,"E":40,"F":41,"G":42,"H":43,"I":44,"J":45,"K":46,"L":47,"M":48,"N":49,"O":50,"P":51,"Q":52,"R":53,"S":54,"T":55,"U":56,"V":57,"W":58,"X":59,"Y":60,"Z":61,"[":62,"\\":63,"]":64,"^":65,"_":66,"`":67,"a":68,"b":69,"c":70,"d":71,"e":72,"f":73,"g":74,"h":75,"i":76,"j":77,"k":78,"l":79,"m":80,"n":81,"o":82,"p":83,"q":84,"r":85,"s":86,"t":87,"u":88,"v":89,"w":90,"x":91,"y":92,"z":93,"{":94,"|":95,"}":96,"~":97,"¡":98,"¢":99,"£":100,"¤":101,"¥":102,"¦":103,"§":104,"¨":105,"©":106,"ª":107,"«":108,"¬":109,"®":110,"¯":111,"°":112,"±":113,"²":114,"³":115,"´":116,"µ":117,"¶":118,"·":119,"¸":120,"¹":121,"º":122,"»":123,"¼":124,"½":125,"¾":126,"¿":127,"À":128,"Á":129,"Â":130,"Ã":131,"Ä":132,"Å":133,"Æ":134,"Ç":135,"È":136,"É":137,"Ê":138,"Ë":139,"Ì":140,"Í":141,"Î":142,"Ï":143,"Ð":144,"Ñ":145,"Ò":146,"Ó":147,"Ô":148,"Õ":149,"Ö":150,"×":151,"Ø":152,"Ù":153,"Ú":154,"Û":155,"Ü":156,"Ý":157,"Þ":158,"ß":159,"à":160,"á":161,"â":162,"ã":163,"ä":164,"å":165,"æ":166,"ç":167,"è":168,"é":169,"ê":170,"ë":171,"ì":172,"í":173,"î":174,"ï":175,"ð":176,"ñ":177,"ò":178,"ó":179,"ô":180,"õ":181,"ö":182,"÷":183,"ø":184,"ù":185,"ú":186,"û":187,"ü":188,"ý":189,"þ":190,"ÿ":191,"Ā":192,"ā":193,"Ă":194,"ă":195,"Ą":196,"ą":197,"Ć":198,"ć":199,"Ĉ":200,"ĉ":201,"Ċ":202,"ċ":203,"Č":204,"č":205,"Ď":206,"ď":207,"Đ":208,"đ":209,"Ē":210,"ē":211,"Ĕ":212,"ĕ":213,"Ė":214,"ė":215,"Ę":216,"ę":217,"Ě":218,"ě":219,"Ĝ":220,"ĝ":221,"Ğ":222,"ğ":223,"Ġ":224,"ġ":225,"Ģ":226,"ģ":227,"Ĥ":228,"ĥ":229,"Ħ":230,"ħ":231,"Ĩ":232,"ĩ":233,"Ī":234,"ī":235,"Ĭ":236,"ĭ":237,"Į":238,"į":239,"İ":240,"ı":241,"Ĳ":242,"ĳ":243,"Ĵ":244,"ĵ":245,"Ķ":246,"ķ":247,"ĸ":248,"Ĺ":249,"ĺ":250,"Ļ":251,"ļ":252,"Ľ":253,"ľ":254,"Ŀ":255,"ŀ":256,"Ł":257,"ł":258,"Ń":259,"à¤":260,"à¥":261,"Ġà¤":262,"à¥į":263,"à¥Ĵ":264,"à¥ĳ":265,"à¤¾":266,"à¤°":267,"à¤¤":268,"à¤¿":269,"à¤¨":270,"à¤µ":271,"à¤¯":272,"à¤®":273,"à¥ĩ":274,"à¥ģ":275,"à¤¸":276,"Ġà¥":277,"à¥ĭ":278,"à¤Ĥ":279,"čĊ":280,"à¤¦":281,"Ġà¤¸":282,"à¤·":283,"Ġà¤µ":284,"à¤¿à¥Ĵ":285,"à¤¾à¥Ĵ":286,"Ġà¥¤":287,"Ġà¤ª":288,"à¤¾à¥ĳ":289,"à¤ĥ":290,"à¤¹":291,"à¥Ģ":292,"Ġà¥¥":293,"eo":294,"Ġ<":295,"eos":296,"à¥ĥ":297,"à¤¶":298,"à¤ª":299,"Ġà¤¤":300,"Ġà¤¯":301,"à¤ķ":302,"à¤¿à¥ĳ":303,"Ġà¤®":304,"à¤§":305,"IG":306,"RIG":307,"Ġà¤¦":308,"à¤£":309,"à¥ģà¥Ĵ":310,"Ġà¤ħ":311,"à¤ľ":312,"à¤Ń":313,"à¥ĩà¥Ĵ":314,"AR":315,"AT":316,"HAR":317,"VA":318,"ATHAR":319,"ATHARVA":320,"Ġà¤¨":321,"à¤ļ":322,"à¥ĭà¥Ĵ":323,"à¥Ĥ":324,"à¤Ĺ":325,"à¥ĩà¥ĳ":326,"à¤¥":327,"à¥ģà¥ĳ":328,"à¥ĭà¥ĳ":329,"à¤Ĥà¥Ĵ":330,"Ġà¤ķ":331,"Ġà¤¶":332,"Ġà¤°":333,"AJ":334,"UR":335,"YAJ":336,"YAJUR":337,"à¤Ĥà¥ĳ":338,"Ġà¤ľ":339,"Ġà¤¹":340,"à¥ĥà¥Ĵ":341,"Ġà¤ļ":342,"à¥Ģà¥Ĵ":343,"Ġà¤ĩ":344,"Ġà¤Ń":345,"Ġà¤Ĺ":346,"Ġà¤¬":347,"Ġà¤Ĩ":348,"à¤½":349,"à¥Ī":350,"Ġà¤ī":351,"à¥Ĥà¥Ĵ":352,"à¤Ł":353,"Ġà¤§":354,"à¤ŀ":355,"à¤¾à¤Ĥ":356,"à¤ĥà¥ĳ":357,"à¥ĥà¥ĳ":358,"à¤²":359,"à¥Ģà¥ĳ":360,"à¤¾à¤ĥ":361,"à¥Į":362,"à¤µà¤¤":363,"Ġà¤ĩà¤¨":364,"Ġà¤ªà¤°":365,"à¤Ľ":366,"à¤ł":367,"à¤¿à¤ĥ":368,"Ġà¤ı":369,"à¤¤à¤®":370,"à¤ªà¤¤":371,"à¤¯à¤¤":372,"à¤°à¤¤":373,"à¤¬":374,"Ġà¤µà¤°":375,"à¤ĺ":376,"Ġà¤¯à¤¦":377,"à¤¿à¤Ĥ":378,"à¤®à¤¨":379,"à¤ĥà¥Ĵ":380,"à¤¤à¤°":381,"à¤¾à¤Ĥà¥Ĵ":382,"à¤µà¤¸":383,"à¥Ĥà¥ĳ":384,"à¤¾à¤Ĥà¥ĳ":385,"à¤¯à¤®":386,"à¤¯à¤¨":387,"à¤µà¤¨":388,"à¤°à¤¸":389,"îĢ":390,"îĢģ":391,"à¤Ļ":392,"à¤°à¤®":393,"Ġà¤®à¤¨":394,"à¤¤à¤¸":395,"Ġà¤ĭ":396,"à¤µà¤°":397,"à¤®à¤¸":398,"Ġà¤¸à¤°":399,"Ġà¤µà¤¸":400,"à¤ģ":401,"à¤ĸ":402,"à¥ģà¤ĥ":403,"à¤¯à¤¸":404,"Ġà¤¸à¤®":405,"à¤¤à¤¯":406,"à¤µà¤®":407,"à¤®à¤¹":408,"Ġà¤¯à¤¤":409,"à¤°à¤¹":410,"à¤°à¤µ":411,"³ª":412,"á³ª":413,"à¤¾à¤ģ":414,"Ġà¤ĺ":415,"à¤½à¤¸":416,"à¤¨à¤®":417,"Ġà¤ħà¤¸":418,"Ġà¤¨à¤®":419,"à¥Īà¥Ĵ":420,"Ġà¤¯à¤¸":421,"à¥Īà¥ĳ":422,"Ġà¤®à¤§":423,"à¤®à¤¤":424,"à¤¡":425,"à¤¹à¤¸":426,"à¤³":427,"Ġà¤ħà¤¨":428,"Ġà¤ħà¤Ĺ":429,"à¤¤à¤µ":430,"Ġà¤¤à¤¸":431,"Ġà¤®à¤¹":432,"à¤°à¤¯":433,"Ġà¤ħà¤§":434,"Ġà¤ľà¤¨":435,"Ġà¤¯à¤ľ":436,"Ġà¤·":437,"Ġà¤¦à¤§":438,"à¤ľà¤¨":439,"Ġà¤¹à¤°":440,"à¤·à¤¸":441,"Ġà¤®à¤°":442,"à¤¯à¤µ":443,"Ġà¤°à¤¥":444,"à¤¨à¤¸":445,"Ġà¤īà¤ª":446,"Ġà¤¤à¤¦":447,"à¤·à¤¤":448,"Ġà¤ªà¤¤":449,"Ġà¤¯à¤¥":450,"Ġà¤Ĭ":451,"à¤µà¤¦":452,"à¤µà¤¯":453,"à¤°à¤¥":454,"Ġà¤ħà¤ª":455,"à¤®à¤¦":456,"Ġà¤¤à¤®":457,"à¤¿à¤Ĥà¥Ĵ":458,"Ġà¤ħà¤°":459,"à¥ģà¤Ĥ":460,"à¥Ģà¤ĥ":461,"à¤¹à¤¤":462,"à¤°à¤¨":463,"à¤·à¤£":464,"Ġà¤²":465,"Ġà¤¤à¤¤":466,"Ġà¤¸à¤µ":467,"Ġà¤Ī":468,"à¤¤à¤¨":469,"à¤¦à¤¸":470,"Ġà¤¹à¤µ":471,"Ġà¤ĵ":472,"Ġà¤®à¤¦":473,"à¤°à¤¦":474,"Ġà¤¸à¤¹":475,"à¤¨à¤¯":476,"Ġà¤¸à¤¨":477,"Ġà¤ħà¤¤":478,"à¥Įà¥Ĵ":479,"Ġà¤¤à¤µ":480,"à¤ļà¤¤":481,"à¤¯à¤¦":482,"Ġà¤ħà¤µ":483,"Ġà¤µà¤¨":484,"à¤¹à¤¨":485,"à¥Įà¥ĳ":486,"à¤§à¤¯":487,"à¤·à¤®":488,"Ġà¤Ľ":489,"à¤§à¤¸":490,"Ġà¤ļà¤ķ":491,"à¤®à¤®":492,"à¤¦à¤¨":493,"à¤¦à¤¯":494,"à¤£à¤¸":495,"à¤°à¤¶":496,"Ġà¤¶à¤°":497,"à¤¿à¤Ĥà¥ĳ":498,"à¤®à¤°":499,"à¤¸à¤¤":500,"à¥Ģà¤Ĥ":501,"à¤ªà¤°":502,"à¤¨à¤¨":503,"Ġà¤ħà¤¦":504,"Ġà¤ħà¤¶":505,"à¤®à¤µ":506,"Ġà¤īà¤¦":507,"à¤½à¤¨":508,"à¤½à¤µ":509,"à¤¿à¤ĥà¥ĳ":510,"à¤¦à¤¤":511,"à¤¯à¤ľ":512,"Ġà¤¤à¤¨":513,"Ġà¤§à¤¨":514,"à¤®à¤Ĺ":515,"Ġà¤°à¤ķ":516,"Ġà¤ķà¤°":517,"Ġà¤½":518,"Ġà¤¦à¤ķ":519,"Ġà¤¸à¤¦":520,"Ġà¤¸à¤ĸ":521,"à¤¾à¤ĥà¥ĳ":522,"à¤®à¤Ń":523,"Ġà¤¯à¤¨":524,"à¤½à¤§":525,"Ġà¤µà¤ľ":526,"à¥Īà¤ĥ":527,"à¤ļà¤ķ":528,"à¤£à¤®":529,"Ġà¤Ńà¤µ":530,"Ġà¤µà¤¯":531,"à¤¤à¤¤":532,"à¤µà¤ª":533,"à¤ªà¤¦":534,"Ġà¤¨à¤°":535,"à¤¤à¤¦":536,"à¤µà¤§":537,"à¤ĺà¤µ":538,"à¤·à¤¨":539,"Ġà¤¯à¤ļ":540,"à¤®à¤§":541,"à¤¯à¤¯":542,"à¤¸à¤®":543,"Ġà¤¨à¤µ":544,"à¤¨à¤µ":545,"Ġà¤µà¤¹":546,"à¤¦à¤®":547,"à¤¹à¤®":548,"à¤°à¤ľ":549,"Ġà¤Ĩà¤ª":550,"à¤µà¤¶":551,"à¤°à¤ª":552,"Ġà¤ªà¤¯":553,"à¤µà¤µ":554,"à¥ĭà¤ĥ":555,"à¤µà¤ķ":556,"à¤®à¤ª":557,"à¤¶à¤¤":558,"à¤Ľà¤¤":559,"Ġà¤Ńà¤Ĺ":560,"à¤®à¤¶":561,"à¤·à¤¦":562,"à¤·à¤¯":563,"à¤®à¤¯":564,"Ġà¤Ńà¤°":565,"Ġà¤īà¤¤":566,"Ġà¤ıà¤ķ":567,"à¤ªà¤¸":568,"Ġà¤ħà¤¥":569,"Ġà¤¶à¤¤":570,"Ġà¤Ĺà¤°":571,"Ġà¤Ľà¤¨":572,"Ġà¤¸à¤ļ":573,"à¤¯à¤¶":574,"à¤ľà¤¯":575,"Ġà¤ķà¤²":576,"à¤¹à¤¦":577,"à¤ķà¤®":578,"Ġà¤ĩà¤¤":579,"Ġà¤ħà¤®":580,"à¤¾à¤ĥà¥Ĵ":581,"Ġà¤¦à¤¦":582,"à¤ªà¤¯":583,"Ġà¤¯à¤ķ":584,"à¤Ľà¤¨":585,"Ġà¤°à¤ľ":586,"à¤¸à¤¨":587,"Ġà¤ħà¤¹":588,"à¤½à¤Ń":589,"Ġà¤¨à¤ķ":590,"à¤¸à¤¦":591,"à¤¶à¤¨":592,"à¤ľà¤¤":593,"Ġà¤ļà¤°":594,"à¤¿à¤ĥà¥Ĵ":595,"Ġà¤ªà¤ŀ":596,"à¤¦à¤§":597,"Ġà¤ħà¤Ń":598,"à¤°à¤£":599,"Ġà¤ªà¤¶":600,"Ġà¤¤à¤ª":601,"à¤ļà¤°":602,"à¤µà¤·":603,"Ġà¤®à¤¯":604,"à¤¤à¤ª":605,"à¤½à¤ª":606,"à¤¶à¤¸":607,"Ġà¤¶à¤µ":608,"à¥ĴîĢģ":609,"Ġà¤Ĩà¤¯":610,"à¤§à¤¨":611,"Ġà¤¹à¤¨":612,"Ġà¤ļà¤¤":613,"Ġà¤Ĩà¤¸":614,"à¤½à¤Ĺ":615,"Ġà¤ªà¤µ":616,"à¤¹à¤µ":617,"Ġà¤ĵà¤·":618,"Ġà¤¯à¤¶":619,"Ġà¤®à¤®":620,"Ġà¤ħà¤ļ":621,"Ġà¤Ĺà¤µ":622,"à¤§à¤¤":623,"Ġà¤Ĩà¤¦":624,"à¤½à¤°":625,"Ġà¤¯à¤µ":626,"à¤¯à¤¥":627,"à¤µà¤¹":628,"Ġà¤Ĺà¤ļ":629,"Ġà¤ľà¤Ĺ":630,"à¤¯à¤ª":631,"à¥Ħ":632,"Ġà¤¦à¤¶":633,"Ġà¤£":634,"à¤°à¤Ń":635,"Ġà¤ħà¤ķ":636,"Ġà¤ĩà¤µ":637,"Ġà¤ĩà¤·":638,"à¤½à¤®":639,"Ġà¤¸à¤¤":640,"Ġà¤¬à¤²":641,"à¤ľà¤¸":642,"Ġà¤¶à¤®":643,"à¥ģà¤Ĥà¥Ĵ":644,"à¤£à¤¨":645,"à¤¯à¤ļ":646,"à¤®à¤£":647,"à¤ļà¤¨":648,"Ġà¤¯à¤®":649,"à¤ķà¤°":650,"Ġà¤¹à¤¸":651,"à¤¾à¤ģà¥Ĵ":652,"à¤¯à¤Ĺ":653,"à¤¦à¤¶":654,"à¤¦à¤¥":655,"Ġà¤¦à¤¸":656,"Ġà¤µà¤ļ":657,"Ġà¤ľà¤°":658,"à¤¯à¤°":659,"Ġà¤ĩà¤¦":660,"Ġà¤ĸ":661,"à¤ŀà¤¸":662,"à¤ªà¤¨":663,"Ġà¤ĭà¤·":664,"à¤µà¤ľ":665,"à¤µà¤ļ":666,"à¤ªà¤¶":667,"à¤Ńà¤°":668,"à¤«":669,"à¤¤à¤¶":670,"à¥ĩà¤ĥ":671,"à¤°à¤ļ":672,"Ġà¤ĵà¤ľ":673,"à¤Ńà¤µ":674,"à¤¾à¤ģà¥ĳ":675,"à¤°à¤§":676,"à¥ģà¤Ĥà¥ĳ":677,"à¤¦à¤¦":678,"à¥Ģà¤Ĥà¥Ĵ":679,"Ġà¤ķà¤¸":680,"à¤½à¤¶":681,"à¤ŀà¤®":682,"Ġà¤ªà¤¨":683,"à¤½à¤¦":684,"à¤¸à¤¸":685,"Ġà¤¸à¤ª":686,"Ġà¤ħà¤ľ":687,"à¤¨à¤¤":688,"à¤¯à¤§":689,"à¤Ĺà¤®":690,"à¤Ńà¤¸":691,"á³ªà¤¸":692,"à¤Ńà¤¯":693,"Ġà¤§à¤°":694,"à¥ĳîĢģ":695,"à¤¶à¤¯":696,"à¤¨à¤ķ":697,"à¤°à¤ķ":698,"Ġà¤®à¤¤":699,"à¤£à¤µ":700,"à¤½à¤¤":701,"à¤¨à¤¶":702,"à¥ģà¤ĥà¥ĳ":703,"à¤Ńà¤Ĺ":704,"Ġà¤¤à¤°":705,"Ġà¤¨à¤Ń":706,"Ġà¤¦à¤®":707,"Ġà¤ħà¤Ļ":708,"à¤ľà¤°":709,"Ġà¤¸à¤¹à¤¸":710,"à¤§à¤®":711,"à¤¦à¤°":712,"à¤ľà¤®":713,"à¤¢":714,"à¤¾îĢģ":715,"à¤½à¤¹":716,"à¤¤à¤ķ":717,"Ġà¤ľà¤¯":718,"Ġà¤Ĩà¤¹":719,"Ġà¤°à¤¸":720,"à¤°à¤°":721,"à¤¸à¤°":722,"Ġà¤Ńà¤µà¤¤":723,"à¤¯à¤ķ":724,"à¤¾à¥ĳîĢģ":725,"à¤½à¤¯":726,"à¤°à¤Ĺ":727,"à¤¨à¤°":728,"à¤§à¤°":729,"à¤¿îĢģ":730,"Ġà¤Ĭà¤°":731,"à¤®à¤ķ":732,"à¤¶à¤µ":733,"Ġà¤¶à¤¶":734,"Ġà¤¶à¤ļ":735,"Ġà¤Ĺà¤¨":736,"à¥Ģà¤Ĥà¥ĳ":737,"âĢ":738,"Ġà¤ĭà¤¤":739,"ĠâĢ":740,"à¥ģà¤ĥà¥Ĵ":741,"Ġà¤¨à¤ª":742,"à¤łà¤¤":743,"à¤¯à¤½":744,"à¤·à¤§":745,"Ġà¤¤à¤¯":746,"Ġà¤¦à¤°":747,"Ġà¤¬à¤¹":748,"à¤ħ":749,"à¤µà¤Ń":750,"Ġà¤Ĩà¤Ĺ":751,"Ġà¤Ĳ":752,"à¤µà¤£":753,"à¤®à¤ļ":754,"à¤ļà¤¸":755,"Ġà¤§à¤¤":756,"à¤ĭ":757,"Ġà¤µà¤¦":758,"Ġà¤°à¤¤":759,"Ġà¤°à¤£":760,"Ġà¤Ńà¤µà¤¨":761,"à¤®à¤¥":762,"à¤¦à¤µ":763,"Ġà¤¶à¤ķ":764,"à¤®à¤ľ":765,"à¤ĺà¤µà¤¨":766,"à¤¨à¤ª":767,"à¤¾à¥ĴîĢģ":768,"à¤Łà¤¯":769,"Ġà¤ıà¤¤":770,"à¤¹à¤°":771,"à¤£à¤¶":772,"Ġà¤Ĩà¤µ":773,"à¤·à¤ľ":774,"à¤·à¤°":775,"Ġà¤µà¤¶":776,"Ġà¤ıà¤¨":777,"Ġà¤¸à¤¸":778,"à¤ªà¤®":779,"à¤¥à¤®":780,"Ġà¤ľà¤¹":781,"à¥Ĥà¤ĥ":782,"Ġà¤°à¤¯":783,"à¥ł":784,"Ġà¤µà¤§":785,"à¤Ĺà¤¨":786,"à¤µà¤Ĺ":787,"Ġà¤µà¤ķ":788,"à¤ªà¤µ":789,"à¤¦à¤ķ":790,"à¤¯à¤ŀ":791,"Ġà¤®à¤ĺà¤µ":792,"à¤Ĺà¤¸":793,"Ġà¤ķà¤¤":794,"Ġà¤ķà¤£":795,"Ġà¤īà¤°":796,"Ġà¤ªà¤ļ":797,"Ġà¤ķà¤¶":798,"Ġà¤ľà¤ľ":799,"Ġà¤Ĩà¤°":800,"à¤¨à¤¹":801,"Ġà¤µà¤ª":802,"Ġà¤¯à¤¯":803,"à¤£à¤¯":804,"Ġà¤ħà¤¯":805,"Ġà¤ıà¤¹":806,"Ġà¤Īà¤¶":807,"à¤¨à¤¦":808,"à¤¯à¤Ļ":809,"Ġà¤¨à¤¯":810,"à¤¸à¤µ":811,"à¤·à¤ķ":812,"à¤¹à¤¯":813,"à¤¶à¤®":814,"à¤½à¤Ļ":815,"Ġà¤īà¤·":816,"à¤Łà¤®":817,"à¥Įà¤ĥ":818,"à¤ķà¤¨":819,"à¤£à¤¤":820,"Ġà¤Ĩà¤¶":821,"à¤¹à¤£":822,"à¤ķà¤¸":823,"à¥Ĥà¤Ĥà¥ĳ":824,"à¤½à¤ľ":825,"à¤¿à¥ĴîĢģ":826,"à¤¹à¤ª":827,"à¤ªà¤¯à¤¤":828,"à¤Łà¤°":829,"á³ªà¤¶":830,"à¤¤à¤Ń":831,"à¤£à¤ķ":832,"à¥Ħà¥Ĵ":833,"à¤¯á³ª":834,"Ġà¤ªà¤µà¤¤":835,"à¥Ĥà¤ģ":836,"à¤ĸà¤¸":837,"Ġà¤ªà¤ª":838,"à¤½à¤¥":839,"à¤¬à¤°":840,"à¤®à¤Ļ":841,"Ġà¤Ĩà¤¨":842,"Ġà¤ıà¤·":843,"à¤°à¤¹à¤¨":844,"à¤³à¤¹":845,"à¤¨à¤ľ":846,"à¤¨à¤¥":847,"à¤ªà¤¥":848,"à¤°à¤¯à¤¨":849,"à¤¸à¤¹":850,"à¤·à¤Ń":851,"Ġà¤¤à¤ķ":852,"Ġà¤®à¤ĺà¤µà¤¨":853,"à¤ļà¤¯":854,"à¤µà¤¥":855,"à¤ļà¤²":856,"Ġà¤ķà¤¦":857,"Ġà¤īà¤ļ":858,"à¤²à¤®":859,"à¤ªà¤¤à¤¯":860,"à¥ĭà¤ĥà¥Ĵ":861,"Ġà¤µà¤¹à¤¨":862,"Ġà¤¦à¤¤":863,"Ġà¤ħà¤¬":864,"Ġà¤ķà¤µ":865,"à¤²à¤¶":866,"à¤łà¤°":867,"à¤łà¤®":868,"à¤¬à¤¤":869,"à¥Ģà¤ĥà¥Ĵ":870,"à¤¿à¥ĳîĢģ":871,"Ġà¤ľà¤Ļ":872,"Ġà¤Ĺà¤®":873,"à¤²à¤¯à¤ľ":874,"à¤ĺà¤®":875,"Ġà¤«":876,"à¤¸à¤¶":877,"à¤¦à¤¯à¤¤":878,"à¥Ģà¤ģ":879,"à¤§à¤µ":880,"Ġà¤¨à¤¸":881,"à¤ļà¤¦":882,"à¤Ĺà¤°":883,"Ġà¤ĩà¤³":884,"à¤¤à¤®à¤¶":885,"á³ªà¤¹":886,"Ġà¤½à¤Ĺ":887,"à¤¦à¤ª":888,"à¤¦à¤Ń":889,"à¥Įà¤Ĥ":890,"à¤¬à¤¨":891,"à¤°à¤¯à¤¤":892,"Ġà¤¸à¤ľ":893,"à¤ķà¤µ":894,"Ġà¤ķà¤®":895,"Ġà¤¶à¤¯":896,"Ġà¤Ĺà¤Ń":897,"Ġà¤¬à¤¨":898,"Ġà¤¬à¤Ń":899,"à¥Īà¤ĥà¥ĳ":900,"à¤®à¤£à¤¸":901,"à¤¦à¤¯à¤¨":902,"Ġà¤µà¤·":903,"à¤¶à¤¨à¤®":904,"à¤ļà¤®":905,"à¥Ĥà¤Ĥ":906,"Ġà¤ķà¤¨":907,"Ġà¤°à¤°":908,"à¤³à¤¤":909,"à¤¯à¤½à¤ļà¤²":910,"à¤¤à¤¹":911,"Ġà¤ļà¤¨":912,"Ġà¤Ĩà¤Ń":913,"ĠâĢľ":914,"à¤¯à¤Ń":915,"Ġà¤ªà¤µà¤¸":916,"à¤¶à¤Ļ":917,"à¤ªà¤¯à¤¨":918,"Ġà¤¤à¤¥":919,"à¤Ĺà¤µ":920,"à¤½à¤·":921,"à¤½à¤£":922,"à¤½à¤µà¤¨":923,"à¤ŀà¤ª":924,"à¤ĺà¤¨":925,"à¤°à¤¥à¤®":926,"Ġà¤¶à¤¤à¤ķ":927,"à¤ħà¤¥":928,"à¤®à¤µà¤°":929,"Ġà¤¸à¤§":930,"Ġà¤¸à¤ªà¤¤":931,"à¤¶à¤ķ":932,"Ġà¤ħà¤·":933,"Ġà¤Ĩà¤ľ":934,"à¤Ľà¤®":935,"à¤Ľà¤¤à¤®":936,"à¤¨à¤Ń":937,"à¤¦à¤¹":938,"à¤¦à¤Ĺ":939,"à¤Ńà¤¤":940,"Ġà¤ĩà¤¯":941,"à¤³à¤¯":942,"à¤¸à¤¯":943,"à¥Ģà¤ĥà¥ĳ":944,"Ġà¤°à¤¨":945,"à¤½à¤ķ":946,"à¤²à¤¸":947,"à¤Ľà¤¸":948,"à¤¨à¤®à¤¸":949,"à¤·à¤Ĺ":950,"Ġà¤µà¤µ":951,"à¤¶à¤°":952,"à¤ķà¤¶":953,"à¤§à¤¯à¤¨":954,"Ġà¤ħà¤ĺ":955,"à¤ľà¤Ĺ":956,"Ġà¤Ĩà¤¤":957,"à¤¯à¤½à¤®":958,"Ġà¤ªà¤¦":959,"à¤¶à¤¦":960,"à¤Ńà¤¨":961,"Ġà¤¨à¤¶":962,"Ġà¤ľà¤®":963,"Ġà¤Ńà¤ķ":964,"à¤Łà¤ª":965,"Ġà¤Īà¤¡":966,"ĠâĢĿ":967,"à¤¤à¤¬":968,"à¤¹à¤ļ":969,"à¤¥à¤¸":970,"Ġà¤īà¤ķ":971,"à¤°à¤®à¤¸":972,"Ġà¤Ķ":973,"à¤¤à¤§":974,"à¤¨à¤§":975,"à¤Ĺà¤¤":976,"à¤¥à¤¨":977,"Ġà¤ķà¤ķ":978,"Ġà¤Ĩà¤ķ":979,"à¤łà¤¸":980,"Ġà¤ıà¤®":981,"Ġà¤ĭà¤Ń":982,"Ġà¤·à¤¡":983,"à¤¤à¤¥":984,"à¤¨à¤Ĺ":985,"à¤µà¤½à¤°":986,"à¤¯à¤µà¤°":987,"Ġà¤Ĺà¤¯":988,"Ġà¤¬à¤°":989,"à¤½à¤µà¤¤":990,"à¤Łà¤¤":991,"à¤¤à¤®à¤¨":992,"à¤¤à¤®à¤¸":993,"à¤°à¤¬":994,"à¤¤á³ª":995,"à¤¯à¤¹":996,"à¤¯à¤®à¤¨":997,"à¤¯à¤½à¤¸":998,"à¥ĭà¤ĥà¥ĳ":999,"à¤·à¤µ":1000,"Ġà¤µà¤¨à¤¸":1001,"à¤¶à¤ļ":1002,"Ġà¤¨à¤¹":1003,"à¤ĺà¤¶":1004,"Ġà¤·à¤Ł":1005,"à¤¹à¤¶":1006,"à¤ķà¤²":1007,"à¤Ĺà¤ļ":1008,"à¤½à¤ļ":1009,"à¤Ľà¤°":1010,"à¤łà¤¨":1011,"à¤łà¤¯":1012,"Ġà¤µà¤¸à¤µ":1013,"á³ªà¤¶à¤¤":1014,"Ġà¤¯à¤ľà¤¤":1015,"Ġà¤ħà¤¥à¤°":1016,"Ġà¤¸à¤ļà¤¨":1017,"Ġà¤¸à¤ķ":1018,"à¤ªà¤ļ":1019,"à¤ľà¤µ":1020,"Ġà¤°à¤µ":1021,"Ġà¤īà¤¨":1022,"à¤µà¤¤à¤®":1023,"Ġà¤ªà¤°à¤®":1024,"à¤ĺà¤¤":1025,"Ġà¤¯à¤¦à¤¸":1026,"à¤¦à¤¸à¤®":1027,"à¤°à¤¦à¤¤":1028,"Ġà¤½à¤°":1029,"Ġà¤Ĳà¤¨":1030,"à¤µà¤²":1031,"à¤µà¤¯à¤¨":1032,"Ġà¤µà¤¹à¤¤":1033,"à¤¹à¤¥":1034,"à¤¶à¤Ń":1035,"Ġà¤¤à¤ļ":1036,"Ġà¤¦à¤¹":1037,"Ġà¤¶à¤µà¤¸":1038,"Ġà¤¬à¤§":1039,"Ġà¤½à¤¨":1040,"à¥Ĥà¤ģà¥ĳ":1041,"à¤°à¤Ļ":1042,"à¤µá³ª":1043,"à¤¯à¤·":1044,"à¤®à¤ĺ":1045,"Ġà¤¸á³ª":1046,"Ġà¤ªà¤¸":1047,"à¤§à¤¯à¤¤":1048,"à¤Ĺà¤²":1049,"à¤¥à¤µ":1050,"Ġà¤°à¤ª":1051,"Ġà¤¹à¤µà¤¨":1052,"à¤Łà¤¨":1053,"à¤°à¤®à¤¤":1054,"à¤°à¤·":1055,"à¤¦à¤ľ":1056,"à¥ĥà¤Ĥ":1057,"à¤ķà¤¯":1058,"à¤ķà¤ª":1059,"à¤Ńà¤®":1060,"à¤ļà¤¥":1061,"Ġà¤Ńà¤¦":1062,"à¤¬à¤²":1063,"à¤°à¤®à¤µ":1064,"à¤ģà¥Ĵ":1065,"Ġà¤½à¤ª":1066,"Ġà¤ĸà¤¨":1067,"à¤ī":1068,"à¤°á³ª":1069,"à¤¨à¤¯à¤¨":1070,"à¤¸à¤ĸ":1071,"à¤¦à¤Ļ":1072,"Ġà¤¸à¤¶":1073,"Ġà¤¸à¤²":1074,"Ġà¤µà¤²":1075,"Ġà¤ªà¤²":1076,"à¤ªà¤ķ":1077,"Ġà¤®à¤£":1078,"à¤ľà¤¥":1079,"à¤Ĺà¤ª":1080,"à¤¥à¤¯":1081,"Ġà¤¶à¤ª":1082,"Ġà¤ļà¤°à¤¤":1083,"Ġà¤ĩà¤°":1084,"à¥Īà¤ĥà¥Ĵ":1085,"à¤¬à¤Ń":1086,"Ġà¤ĭà¤ķ":1087,"à¤¦à¤¯à¤§":1088,"à¤°à¤®à¤¨":1089,"à¤¤à¤ľ":1090,"à¤¦à¤¯à¤¸":1091,"à¥ĥîĢģ":1092,"Ġà¤®à¤ĺ":1093,"à¤§à¤¶":1094,"à¤ľà¤ľ":1095,"Ġà¤ķà¤ª":1096,"Ġà¤ľà¤ĺ":1097,"Ġà¤ĩà¤¡":1098,"Ġà¤Ńà¤ľ":1099,"Ġà¤ıà¤µ":1100,"à¤¤à¤®à¤®":1101,"Ġà¤ĭà¤ļ":1102,"á³ªà¤·":1103,"Ġà¤Ĭà¤§":1104,"Ġà¤Īà¤³":1105,"à¥°":1106,"à¤¤à¤ĭ":1107,"à¤µà¤¯à¤¤":1108,"à¤¯à¤ľà¤¨":1109,"Ġà¤¸à¤Ń":1110,"Ġà¤¸à¤Ĺ":1111,"Ġà¤¸à¤°à¤¸":1112,"Ġà¤¸à¤ļà¤¤":1113,"à¤·à¤¥":1114,"à¤·à¤¤à¤®":1115,"à¤·à¤°à¤¨":1116,"Ġà¤ªà¤¥":1117,"à¤ªà¤²":1118,"Ġà¤¤à¤ľ":1119,"à¤Ńà¤µà¤¤":1120,"Ġà¤¨à¤¯à¤¤":1121,"Ġà¤¨à¤®à¤¨":1122,"à¤¥à¤¤":1123,"Ġà¤ķà¤¯":1124,"Ġà¤°à¤®":1125,"Ġà¤°à¤¶":1126,"Ġà¤Ĩà¤§":1127,"à¤½à¤¹à¤®":1128,"à¤ŀà¤µ":1129,"Ġà¤ıà¤¦":1130,"Ġà¤ĭà¤ľ":1131,"Ġà¤ĺà¤°":1132,"à¤¡à¤¤":1133,"Ġà¤½à¤¸":1134,"ĠâĢĵ":1135,"Ġà¤«à¤²":1136,"à¤¯à¤½à¤ļà¤²à¤¤":1137,"à¤¤à¤ļ":1138,"à¤¨á³ª":1139,"à¤®à¤ĸ":1140,"à¤¸à¤ª":1141,"Ġà¤¸à¤¬":1142,"à¤·à¤¹":1143,"à¥ĢîĢģ":1144,"à¤ªà¤ª":1145,"Ġà¤¦à¤¨":1146,"à¤ļà¤°à¤¤":1147,"Ġà¤°à¤Ń":1148,"Ġà¤ļà¤®":1149,"Ġà¤Ńà¤°à¤¤":1150,"Ġà¤Ĩà¤¸à¤¨":1151,"Ġà¤¯à¤¦à¤°":1152,"à¤ľà¤¨à¤¯":1153,"Ġà¤½à¤Ń":1154,"à¤ı":1155,"Ġà¤¦à¤µ":1156,"à¤Ńà¤§":1157,"Ġà¤ľà¤µ":1158,"Ġà¤ıà¤§":1159,"à¤³à¤¸":1160,"Ġà¤Īà¤®à¤¹":1161,"Ġà¤ĵà¤·à¤§":1162,"à¤¨à¤ļ":1163,"à¤µà¤ŀ":1164,"à¤µà¤Ļ":1165,"à¤¯à¤½à¤°":1166,"Ġà¤¸à¤¯":1167,"Ġà¤ªà¤¡":1168,"à¤§à¤¨à¤®":1169,"à¤£à¤¦":1170,"à¤£à¤ª":1171,"à¤ľà¤¦":1172,"Ġà¤ľà¤²":1173,"Ġà¤Ńà¤¸":1174,"Ġà¤Ńà¤Ļ":1175,"à¤½à¤ĺ":1176,"à¤Łà¤µ":1177,"à¤¯à¤®à¤°":1178,"à¤¯à¤®à¤¸":1179,"Ġà¤®à¤¦à¤¨":1180,"à¤µà¤ķà¤°":1181,"Ġà¤Ĳà¤¤":1182,"á³ªà¤¶à¤ļ":1183,"à¤°à¤µà¤¸":1184,"à¤°à¤¯à¤¸":1185,"à¤¤à¤¯à¤¤":1186,"à¤¨à¤Ļ":1187,"à¤¯à¤¤à¤®":1188,"à¤¯à¤ĺ":1189,"à¤®à¤¬":1190,"à¤¦à¤ļ":1191,"Ġà¤µà¤¦à¤¤":1192,"à¤¹á³ª":1193,"à¤ªà¤ľ":1194,"Ġà¤®à¤²":1195,"Ġà¤¦à¤Ńà¤¨":1196,"à¤£à¤Ĺ":1197,"à¤Ńà¤µà¤¦":1198,"Ġà¤ķà¤ļ":1199,"Ġà¤¶à¤¨":1200,"Ġà¤°à¤ĺ":1201,"Ġà¤ľà¤¯à¤¤":1202,"Ġà¤Ĺà¤¹":1203,"Ġà¤Ĩà¤¸à¤¤":1204,"Ġà¤īà¤¶":1205,"Ġà¤§à¤®":1206,"à¤ŀá³ª":1207,"à¤¤à¤®à¤°":1208,"à¤¬à¤§":1209,"à¤°à¤¹à¤¸":1210,"à¤¡à¤¯":1211,"à¤³à¤®":1212,"à¤ľà¤¨à¤¤":1213,"Ġà¤½à¤µ":1214,"à¤¯à¤½à¤ļà¤²à¤¨":1215,"à¤°à¤ı":1216,"à¤¤à¤¯à¤¨":1217,"à¤µà¤®à¤¨":1218,"à¤¯à¤µà¤¸":1219,"à¤®á³ª":1220,"à¤¸à¤¥":1221,"Ġà¤¸à¤¦à¤¤":1222,"Ġà¤ªà¤ķ":1223,"à¤¶à¤§":1224,"à¤§à¤ª":1225,"à¤§à¤§":1226,"Ġà¤¦à¤¯":1227,"à¤£à¤®à¤¸":1228,"à¤ľà¤¯à¤¨":1229,"à¤Ńà¤ľ":1230,"Ġà¤¨à¤¨":1231,"à¤ļà¤·":1232,"à¤ļà¤¨à¤®":1233,"à¤Ĺà¤¯":1234,"à¤Ĺà¤¹":1235,"à¤Ĺà¤£":1236,"Ġà¤°à¤¦":1237,"Ġà¤ľà¤Ń":1238,"Ġà¤¬à¤¦":1239,"Ġà¤īà¤Ĺ":1240,"à¤Łà¤¦":1241,"à¤Łà¤ķ":1242,"à¤Ľà¤µ":1243,"Ġà¤ıà¤ľ":1244,"à¤°à¤®à¤¦":1245,"à¤°à¤®à¤¹":1246,"à¤°à¤®à¤§":1247,"Ġà¤¦à¤§à¤¨":1248,"à¤µà¤¦à¤¨":1249,"Ġà¤ĵà¤¤":1250,"Ġà¤µà¤¨à¤¤":1251,"à¤¯à¤½à¤ķ":1252,"Ġà¤Ĳà¤·":1253,"à¤°à¤µà¤¤":1254,"à¤¤à¤Ĺ":1255,"à¤¨à¤¶à¤¤":1256,"à¤µà¤½":1257,"à¤µà¤¬":1258,"à¤¯à¤µà¤¤":1259,"Ġà¤ªà¤µà¤®":1260,"à¤ªà¤¹":1261,"à¤ķà¤Ń":1262,"Ġà¤®à¤ķ":1263,"à¤£à¤§":1264,"Ġà¤ħà¤²":1265,"à¤ľà¤¹":1266,"à¤ľà¤¯à¤¤":1267,"Ġà¤ķà¤°à¤¤":1268,"Ġà¤Ĩà¤ļ":1269,"à¤½à¤¬":1270,"à¤½à¤®à¤¨":1271,"Ġà¤īà¤²":1272,"à¤²à¤¯":1273,"à¤Ľà¤¥":1274,"à¤ĺà¤°":1275,"à¤¡à¤®":1276,"à¤¡à¤¸":1277,"Ġà¤¦à¤§à¤¤":1278,"à¤µà¤¦à¤¤":1279,"à¤°à¤¥à¤¨":1280,"Ġà¤Īà¤¶à¤¤":1281,"Ġà¤½à¤ªà¤µ":1282,"Ġà¤Ńà¤°à¤§":1283,"Ġà¤¶à¤¶à¤®":1284,"à¤°à¤£à¤®":1285,"à¤¨à¤®à¤¨":1286,"à¤µà¤½à¤¸":1287,"à¥ĩà¤ĥà¥ĳ":1288,"à¥ģîĢģ":1289,"à¤¦à¤¤à¤®":1290,"Ġà¤¸à¤Ļ":1291,"à¤·à¤¶":1292,"Ġà¤¯à¤®à¤¸":1293,"à¤ķà¤¤":1294,"à¤ķà¤£":1295,"Ġà¤®à¤¥":1296,"à¤§à¤¤à¤®":1297,"Ġà¤ħà¤µà¤¤":1298,"Ġà¤ħà¤¨à¤®":1299,"à¤ļà¤°à¤¨":1300,"à¤ļà¤ªà¤¦":1301,"à¤°à¤¤à¤ªà¤¤":1302,"à¤ĺà¤¸":1303,"Ġà¤¯à¤¦à¤¤":1304,"Ġà¤¯à¤¦à¤¨":1305,"à¥Ĥà¥ĳîĢģ":1306,"à¤¯à¤®à¤§":1307,"Ġà¤ĭà¤§":1308,"Ġà¤ĭà¤Ńà¤µ":1309,"à¤ĸà¤®":1310,"à¤µà¤®à¤§":1311,"à¤¨à¤®à¤°":1312,"Ġà¤·à¤³":1313,"Ġà¤°à¤¥à¤¨":1314,"Ġà¤ªà¤¤à¤¤":1315,"à¤®à¤¦à¤¨":1316,"à¤®à¤¦à¤§":1317,"Ġà¤Īà¤µ":1318,"à¤¤à¤¨à¤¯":1319,"à¥Ħà¥ĳ":1320,"à¤®à¤£à¤µà¤°":1321,"à¥Ĥà¤ģà¥Ĵ":1322,"Ġà¤µà¤²à¤Ĺ":1323,"à¤°à¤ĺ":1324,"à¤°à¤«":1325,"à¤¨à¤µà¤¦":1326,"à¥ĩà¤ĥà¥Ĵ":1327,"à¤¸à¤²":1328,"Ġà¤µà¤ŀ":1329,"Ġà¤µà¤µà¤ķ":1330,"à¤¹à¤®à¤¨":1331,"à¤¶à¤¶":1332,"à¤ªá³ª":1333,"Ġà¤¤à¤·":1334,"Ġà¤¯à¤¹":1335,"Ġà¤¯à¤®à¤¤":1336,"à¤ķà¤¦":1337,"à¤ķà¤ķ":1338,"à¤§à¤¦":1339,"Ġà¤¦à¤Ń":1340,"à¤£à¤¬":1341,"Ġà¤ħà¤ĸ":1342,"Ġà¤ħà¤®à¤°":1343,"à¤ľà¤Ĺà¤®":1344,"Ġà¤Ńà¤¯":1345,"Ġà¤Ĺà¤¤":1346,"Ġà¤¬à¤³":1347,"Ġà¤Ĩà¤®":1348,"Ġà¤Ĩà¤¶à¤¤":1349,"à¤½à¤¨à¤®":1350,"à¤½à¤½à¤¦":1351,"à¤²à¤ķ":1352,"à¤Ľà¤¦":1353,"à¤¤à¤®à¤§":1354,"à¤¤à¤°à¤ľ":1355,"à¤¯à¤®à¤µ":1356,"à¤°à¤®à¤°":1357,"à¤ģà¥ĳ":1358,"à¤ĸà¤¯":1359,"à¤µà¤®à¤µ":1360,"à¤µà¤®à¤¶":1361,"Ġà¤ĺà¤¸":1362,"à¤ľà¤¨à¤¯à¤¨":1363,"à¤·à¤£à¤®":1364,"Ġà¤ĵà¤ķ":1365,"Ġà¤½à¤§":1366,"Ġà¤½à¤½à¤¦":1367,"à¤®à¤Ńà¤µ":1368,"à¤®à¤Ńà¤µà¤¤":1369,"à¤¯à¤¥à¤¨":1370,"à¤ķà¤°à¤£à¤®":1371,"Ġà¤ĸà¤²":1372,"Ġà¤¶à¤µà¤¸à¤¸":1373,"à¤°à¤µà¤°":1374,"à¤°à¤ĸ":1375,"à¤¤à¤·":1376,"à¤¨à¤·":1377,"à¤¨à¤Ł":1378,"à¤¨à¤¯à¤¤":1379,"à¤µà¤ĺ":1380,"à¤¯à¤ªà¤°":1381,"à¤®à¤·":1382,"à¤®à¤ŀ":1383,"à¤¦á³ª":1384,"à¤·à¤ª":1385,"Ġà¤µà¤ªà¤¤":1386,"à¤¶á³ªà¤¸":1387,"à¤ªà¤¸à¤®":1388,"Ġà¤¤à¤²":1389,"Ġà¤¤à¤ªà¤¤":1390,"à¤ķà¤°à¤¤":1391,"Ġà¤¦à¤¦à¤¤":1392,"à¤ľà¤§":1393,"à¤ľà¤¸à¤®":1394,"à¤Ńà¤¶":1395,"à¤Ńà¤ķ":1396,"à¤Ńà¤µà¤¨":1397,"à¤¥à¤¶":1398,"Ġà¤¹à¤¯":1399,"Ġà¤ļà¤°à¤¨":1400,"Ġà¤Ńà¤°à¤¨":1401,"Ġà¤Ĺà¤§":1402,"Ġà¤Ĩà¤ŀ":1403,"à¤½à¤½":1404,"à¤½à¤½à¤°":1405,"Ġà¤īà¤ľ":1406,"à¤Łà¤¸":1407,"Ġà¤§à¤¯":1408,"à¤Ľà¤ķ":1409,"à¤łà¤¦":1410,"Ġà¤ıà¤¨à¤®":1411,"à¤¤à¤®à¤µ":1412,"à¤°à¤¤à¤ª":1413,"à¤ĺà¤¦":1414,"Ġà¤¯à¤¦à¤¯":1415,"Ġà¤¯à¤¦à¤¹":1416,"Ġà¤¯à¤¦à¤¶":1417,"Ġà¤¯à¤¦à¤ķ":1418,"à¤®à¤¨à¤®":1419,"à¤°à¤¸à¤¨":1420,"à¤µà¤°à¤¨":1421,"Ġà¤ħà¤¸à¤ª":1422,"à¤³à¤Ń":1423,"à¤ľà¤¨à¤¦":1424,"à¤°à¤¥à¤¤":1425,"Ġà¤Īà¤°à¤¤":1426,"Ġà¤Īà¤³à¤¤":1427,"Ġà¤ĵà¤¹":1428,"à¤°à¤¦à¤ķ":1429,"à¤®à¤Ĺà¤¨":1430,"Ġà¤½à¤¯":1431,"Ġà¤½à¤¹":1432,"à¤£à¤®à¤·":1433,"à¤½à¤Ńà¤µà¤¤":1434,"Ġà¤Ķà¤¦":1435,"à¤ĩ":1436,"à¤¤à¤ªà¤¤":1437,"à¤¨à¤µà¤¤":1438,"à¤µà¤®à¤¸":1439,"à¤¯à¤²":1440,"à¤¯à¤¬":1441,"à¤¯à¤µà¤¨":1442,"à¤¯à¤¹à¤¸":1443,"à¤®à¤ķà¤°":1444,"Ġà¤¸à¤®à¤¸":1445,"Ġà¤¸à¤¦à¤¨":1446,"Ġà¤¸à¤ªà¤°":1447,"à¤·à¤Ł":1448,"à¤·à¤®à¤¨":1449,"à¤·à¤¯à¤¨":1450,"à¤¹à¤ľ":1451,"à¤¹à¤¯à¤¨":1452,"à¥ĥà¤Ĥà¥ĳ":1453,"à¤ªà¤µà¤¸":1454,"à¤£à¤°":1455,"à¤£à¤µà¤¤":1456,"à¤£à¤µà¤¨":1457,"à¤£á³ª":1458,"à¤£à¤µà¤¦":1459,"Ġà¤ħà¤ŀ":1460,"à¤ľà¤¶":1461,"à¤ľà¤Ń":1462,"à¤Ńà¤¦":1463,"Ġà¤¨à¤¯à¤¨":1464,"à¤ļà¤µ":1465,"à¤ļà¤Ń":1466,"à¤Ĺà¤¶":1467,"à¤Ĺà¤§":1468,"à¤Ĺà¤®à¤®":1469,"à¤Ĺà¤®à¤µ":1470,"à¤¥à¤°":1471,"Ġà¤¶à¤¸":1472,"Ġà¤¶à¤¤à¤°":1473,"Ġà¤ľà¤¯à¤¨":1474,"Ġà¤¹à¤°à¤¤":1475,"Ġà¤ĩà¤§":1476,"Ġà¤ĩà¤ļ":1477,"Ġà¤Ĺà¤®à¤¯":1478,"Ġà¤¬à¤ª":1479,"Ġà¤Ĩà¤¬":1480,"à¤½à¤½à¤µ":1481,"à¥ĥà¥ĳîĢģ":1482,"à¤Ľà¤ļ":1483,"à¤łà¤®à¤°":1484,"à¤¤à¤®à¤¤":1485,"à¤¤à¤®à¤¦":1486,"à¤¤à¤®à¤Ĺ":1487,"à¤¬à¤®":1488,"à¤¬à¤¹":1489,"à¤¤à¤°à¤®":1490,"à¤¤à¤°à¤¦":1491,"à¤µà¤¸à¤¸":1492,"à¤¤à¤¸à¤®":1493,"à¤ĸà¤¨":1494,"à¤ĸà¤²":1495,"Ġà¤¸à¤®à¤¶":1496,"à¤¨à¤®à¤§":1497,"à¤¹à¤¸à¤¸":1498,"à¤³à¤¯à¤¨":1499,"à¤ľà¤¨à¤¨":1500,"Ġà¤²à¤ķ":1501,"Ġà¤ĵà¤®":1502,"à¤°à¤¦à¤¦":1503,"à¤¯à¤¦à¤¤":1504,"Ġà¤½à¤®":1505,"Ġà¤½à¤¦":1506,"Ġà¤½à¤¶":1507,"à¤·à¤¯à¤£à¤®":1508,"Ġà¤ıà¤ķà¤µ":1509,"Ġà¤¦à¤¦à¤¥":1510,"à¤½à¤Ńà¤µ":1511,"Ġà¤ħà¤Ńà¤µ":1512,"Ġà¤ħà¤Ńà¤µà¤¦":1513,"Ġà¤¦à¤¶à¤ķ":1514,"Ġà¤¯à¤®à¤¬":1515,"à¤ĭà¤¤":1516,"à¥łà¤·":1517,"à¤¶à¤ķà¤ª":1518,"à¤īà¤ķ":1519,"à¤Ĭ":1520,"à¤°à¤ŀ":1521,"à¤¤à¤²":1522,"à¤¤à¤¯à¤¸":1523,"à¤¤à¤ªà¤¦":1524,"à¤µà¤ªà¤¤":1525,"à¤µà¤°à¤¸":1526,"à¤µà¤¯à¤¸":1527,"à¤¯à¤¯à¤¨":1528,"à¤¯à¤ĸ":1529,"à¤¯à¤¦à¤¸":1530,"à¤®à¤²":1531,"à¤®à¤¯à¤¨":1532,"à¤®à¤ĺà¤µ":1533,"à¤¸à¤ķ":1534,"à¤¸à¤ļ":1535,"à¤¸à¤¨à¤®":1536,"à¤¦à¤¬":1537,"Ġà¤¸à¤®à¤¨":1538,"Ġà¤¸á³ªà¤¸":1539,"Ġà¤¸á³ªà¤¶":1540,"à¤·à¤ļ":1541,"à¤·à¤®à¤¸":1542,"à¤·à¤®à¤¤":1543,"à¤·à¤¦à¤¨":1544,"à¤·à¤¦à¤¤":1545,"Ġà¤µà¤¦à¤¨":1546,"à¤¹à¤§":1547,"à¤¹à¤ªà¤¤":1548,"à¤¹à¤¯à¤¤":1549,"à¤¶à¤«":1550,"à¤ªà¤ŀ":1551,"à¤ªà¤¦à¤¸":1552,"à¤§à¤¥":1553,"Ġà¤¦à¤¯à¤¤":1554,"à¤£à¤°à¤®":1555,"à¥ģà¥ĴîĢģ":1556,"Ġà¤ħà¤£":1557,"à¤Ńà¤ŀ":1558,"à¤Ńà¤¯à¤¤":1559,"Ġà¤¨à¤¦":1560,"à¤Ĺà¤ľ":1561,"à¤Ĺà¤Ń":1562,"à¤Ĺà¤®à¤¤":1563,"à¤¥à¤Ń":1564,"Ġà¤ķà¤µà¤¯":1565,"Ġà¤¶à¤·":1566,"Ġà¤¶à¤Ļ":1567,"Ġà¤¶à¤®à¤¸":1568,"Ġà¤¶à¤ªà¤¥":1569,"Ġà¤°à¤§":1570,"Ġà¤ľà¤°à¤¤":1571,"Ġà¤¹à¤¤":1572,"Ġà¤¹à¤µà¤¤":1573,"Ġà¤ĩà¤ľ":1574,"Ġà¤ĩà¤¯à¤°":1575,"Ġà¤Ńà¤¨":1576,"Ġà¤Ńà¤µà¤¸":1577,"Ġà¤Ńà¤°à¤¦":1578,"Ġà¤Ĺà¤£":1579,"Ġà¤Ĺà¤Ľ":1580,"Ġà¤¬à¤£":1581,"Ġà¤Ĩà¤²":1582,"Ġà¤Ĩà¤Ļ":1583,"à¤½à¤²":1584,"à¤½à¤¯à¤®":1585,"à¤½à¤·à¤¤":1586,"à¤½à¤½à¤ª":1587,"à¤½à¤ķà¤°":1588,"à¤ŀà¤ķ":1589,"à¤ŀà¤ªà¤¤":1590,"à¤ŀà¤®à¤¨":1591,"à¤²à¤¤":1592,"à¤²à¤¨":1593,"à¤²à¤¦":1594,"à¤²à¤¹":1595,"à¤²à¤ª":1596,"à¤µà¤¤à¤¸":1597,"à¤Ľà¤¶":1598,"Ġà¤ıà¤¯à¤®":1599,"à¤¤à¤®à¤ª":1600,"à¤°à¤¤à¤¸":1601,"à¤¬à¤ķ":1602,"Ġà¤µà¤°à¤¨":1603,"Ġà¤¯à¤¦à¤µ":1604,"Ġà¤¯à¤¦à¤¦":1605,"Ġà¤¯à¤¦à¤Ń":1606,"à¤¯à¤®à¤ķ":1607,"îĢĥ":1608,"Ġà¤ĭà¤ŀ":1609,"Ġà¤µà¤¸à¤¤":1610,"à¤ĸà¤£":1611,"à¤¯à¤¸à¤®":1612,"à¤®à¤¹à¤¸":1613,"à¤°à¤¹à¤°":1614,"à¤¨à¤®à¤ľ":1615,"à¤³à¤¹à¤®":1616,"Ġà¤ħà¤¨à¤ķ":1617,"à¤°à¤¯à¤§":1618,"Ġà¤ľà¤¨à¤¯à¤¤":1619,"Ġà¤ľà¤¨à¤¯à¤¨":1620,"Ġà¤·à¤·":1621,"à¤·à¤¸à¤®":1622,"Ġà¤°à¤¥à¤ķ":1623,"Ġà¤īà¤ªà¤°":1624,"Ġà¤ªà¤¤à¤¥":1625,"Ġà¤Ĭà¤®":1626,"à¤µà¤¦à¤°":1627,"Ġà¤Īà¤°":1628,"Ġà¤ĵà¤Ń":1629,"à¤¯à¤¦à¤¨":1630,"Ġà¤ļà¤ķà¤°":1631,"à¤®à¤µà¤ķ":1632,"à¤ļà¤ķà¤°":1633,"à¤¤à¤¤à¤ķ":1634,"Ġà¤¸à¤ļà¤§":1635,"Ġà¤¦à¤¦à¤°":1636,"Ġà¤ħà¤Ńà¤µà¤¨":1637,"à¤°à¤Ńà¤µ":1638,"Ġà¤ħà¤ķà¤°":1639,"à¤µà¤ļà¤¸":1640,"à¤£à¤ķà¤²":1641,"Ġà¤µà¤·à¤Ł":1642,"Ġ|":1643,"à¤Ĩ":1644,"à¥Ĵà¥°":1645,"à¤°à¤ªà¤¤":1646,"à¤°à¤µà¤®":1647,"à¤°à¤¦à¤¸":1648,"à¤°à¤§à¤¤":1649,"à¤°á³ªà¤¸":1650,"à¤°à¤ī":1651,"à¤¤à¤¤à¤®":1652,"à¤¤à¤°à¤¤":1653,"à¤¤à¤Ĭ":1654,"à¤¿à¤ģ":1655,"à¤¨à¤²":1656,"à¤¨à¤µà¤°":1657,"à¤µà¤°à¤®":1658,"à¤µà¤£à¤¸":1659,"à¤µà¤ļà¤°":1660,"à¤µà¤½à¤®":1661,"à¤µá³ªà¤¹":1662,"à¤¯à¤¯à¤¤":1663,"à¤¯à¤¯à¤¸":1664,"à¤¯à¤½à¤¨":1665,"à¤¯à¤½à¤§":1666,"à¤¯à¤½à¤¶":1667,"à¤¯à¤½à¤¦":1668,"à¤®à¤ªà¤¤":1669,"à¤®à¤¯à¤¤":1670,"à¥ĩà¤Ĥ":1671,"à¥ĩà¤Ĥà¥Ĵ":1672,"à¥ĩà¥°":1673,"à¤¸à¤Ń":1674,"à¤¸à¤¯à¤¤":1675,"à¤¸à¤°à¤¨":1676,"à¤¦à¤®à¤¸":1677,"Ġà¤¸à¤¹à¤¤":1678,"à¤·à¤¯à¤¤":1679,"à¤·à¤ľà¤®":1680,"Ġà¤µà¤®":1681,"Ġà¤µà¤µà¤°":1682,"Ġà¤ªà¤ľ":1683,"Ġà¤ªà¤¤à¤¯":1684,"à¤¹à¤®à¤¸":1685,"à¥ĥà¤Ĥà¥Ĵ":1686,"à¤¶à¤ª":1687,"à¤¶à¤²":1688,"à¤¶à¤µà¤¸":1689,"à¤ªà¤§":1690,"à¤ªà¤£":1691,"à¤ªà¤¯à¤¸":1692,"Ġà¤¤á³ª":1693,"Ġà¤¯à¤®à¤ª":1694,"à¤ķà¤®à¤¨":1695,"à¤ķà¤®à¤§":1696,"à¤ķà¤®à¤ª":1697,"Ġà¤®à¤ļ":1698,"à¤§à¤ķ":1699,"à¤ľà¤ŀ":1700,"à¤ľà¤²":1701,"à¤ľà¤°à¤¤":1702,"à¤ľà¤¨à¤®":1703,"Ġà¤¨à¤®à¤¸":1704,"à¤ļà¤§":1705,"à¤¥à¤ķ":1706,"à¤¥à¤®à¤µ":1707,"Ġà¤¶à¤£":1708,"Ġà¤¶á³ªà¤¸":1709,"Ġà¤ľà¤¸":1710,"Ġà¤ľà¤ĺà¤¨":1711,"Ġà¤Ńà¤ľà¤¨":1712,"Ġà¤Ĩà¤ĺ":1713,"Ġà¤Ĩà¤¯à¤®":1714,"à¤½à¤½à¤¸":1715,"à¤½à¤½à¤¯":1716,"Ġà¤§à¤ķ":1717,"à¤ŀà¤¤":1718,"à¤ŀà¤¶":1719,"à¤²à¤µ":1720,"à¤²à¤Ĺ":1721,"à¤łà¤µ":1722,"à¤¤à¤®à¤¹":1723,"à¤¤à¤®à¤Ń":1724,"à¤¬à¤¦":1725,"à¤¬à¤¤à¤®à¤¶":1726,"Ġà¤¯à¤¦à¤®":1727,"Ġà¤¯à¤¦à¤ª":1728,"Ġà¤¯à¤¦à¤ľ":1729,"à¤®à¤¨à¤¸":1730,"à¤¤à¤°à¤¹":1731,"à¤¯à¤®à¤¶":1732,"à¤¯à¤®à¤Ĺ":1733,"à¤µà¤¨à¤ļ":1734,"à¤°à¤®à¤ª":1735,"à¤°à¤®à¤¹à¤¶":1736,"à¤®à¤¸à¤¦":1737,"Ġà¤¸à¤®à¤°":1738,"à¤°à¤¹à¤£":1739,"à¤¡à¤¶":1740,"à¤¡à¤²":1741,"à¤¡à¤¯à¤¨":1742,"Ġà¤ħà¤Ĺà¤¨":1743,"à¤°à¤¯à¤ľ":1744,"Ġà¤ħà¤§à¤¤":1745,"Ġà¤¯à¤ľà¤¨":1746,"Ġà¤¯à¤ľà¤¸":1747,"à¤¨à¤¸à¤®":1748,"Ġà¤īà¤ªà¤¸":1749,"Ġà¤¤à¤¦à¤¨":1750,"Ġà¤Ĭà¤¬":1751,"à¤®à¤¦à¤µ":1752,"à¤®à¤¦à¤¦":1753,"Ġà¤¤à¤®à¤ª":1754,"Ġà¤¤à¤¤à¤ķ":1755,"Ġà¤Īà¤¯":1756,"Ġà¤Īà¤·":1757,"Ġà¤Īà¤ķ":1758,"Ġà¤Īà¤§":1759,"à¤§à¤¸à¤®":1760,"à¤°à¤¶à¤¤":1761,"à¤®à¤°à¤ķ":1762,"à¤¯à¤ľà¤¤":1763,"Ġà¤½à¤¤":1764,"Ġà¤½à¤ľ":1765,"Ġà¤½à¤½":1766,"à¤¤à¤¦à¤ķ":1767,"Ġà¤Ńà¤Ĺà¤µ":1768,"Ġà¤ľà¤Ĺà¤®":1769,"à¤°à¤Ńà¤®":1770,"Ġà¤ªà¤¨à¤¯à¤¨":1771,"Ġà¤ħà¤ľà¤°":1772,"Ġà¤ĭà¤¤à¤ľ":1773,"à¤¯à¤½à¤¦à¤§":1774,"à¤ħà¤Ļ":1775,"à¤ĭà¤·":1776,"à¥łà¤¤":1777,"à¥łà¤ķ":1778,"Ġà¤®à¤ĺà¤µà¤ŀ":1779,"à¥Ģà¤ģà¥ĳ":1780,"Ġà¤Ķà¤ķ":1781,"à¥Ĵà¥Ĵ":1782,"à¥ĳîĢĥ":1783,"à¤°à¤²":1784,"à¤°à¤ľà¤¨":1785,"à¤°à¤ļà¤ķ":1786,"à¤°à¤ķà¤°":1787,"à¤°à¤ķà¤°à¤£à¤®":1788,"à¤¤à¤µà¤¤":1789,"à¤¤à¤¦à¤¤":1790,"à¤¿à¤ģà¥ĳ":1791,"à¤¨à¤ŀ":1792,"à¤¨à¤ªà¤¤":1793,"à¤¨à¤¬":1794,"à¤¨à¤µà¤¨":1795,"à¤¨à¤¡":1796,"à¤µà¤ľà¤¨":1797,"à¤µà¤ľà¤¸":1798,"à¤¯à¤½à¤Ĺ":1799,"à¤®à¤µà¤¤":1800,"à¤®à¤®à¤¨":1801,"à¤®à¤µà¤¨":1802,"à¤®à¤®à¤¤":1803,"à¤®à¤°à¤¨":1804,"à¤¸à¤¬":1805,"à¤¸à¤µà¤¸":1806,"à¤¸à¤ªà¤°":1807,"à¥ĭà¤Ĥà¥Ĵ":1808,"à¤¦à¤ĺ":1809,"à¤¦à¤¨à¤®":1810,"à¤¦à¤®à¤°":1811,"à¤·à¤ŀ":1812,"à¤·à¤Ļ":1813,"à¤·à¤¯à¤¸":1814,"Ġà¤µà¤¤":1815,"Ġà¤µà¤°à¤¤":1816,"Ġà¤ªà¤·":1817,"Ġà¤ªà¤£":1818,"Ġà¤ªà¤£à¤¯":1819,"à¤¹à¤²":1820,"à¤¹à¤¯à¤¦":1821,"à¤¹à¤£à¤®":1822,"à¤¶à¤¥":1823,"à¤¶à¤¦à¤¸":1824,"à¤ªà¤Ĺ":1825,"à¤ªà¤®à¤¨":1826,"à¤ªà¤µà¤¨":1827,"à¤ªà¤¨à¤®":1828,"Ġà¤¯à¤·":1829,"Ġà¤¯à¤µà¤¯":1830,"Ġà¤¯à¤®à¤µ":1831,"Ġà¤¯à¤µà¤®à¤§":1832,"à¤ķà¤°à¤®":1833,"à¤ķà¤®à¤µ":1834,"à¤ķà¤®à¤Ĺ":1835,"Ġà¤®à¤®à¤¤":1836,"Ġà¤®á³ªà¤¹":1837,"à¤§à¤®à¤¦":1838,"à¤§à¤®à¤ª":1839,"Ġà¤¦à¤¯à¤¸":1840,"Ġà¤¦à¤¹à¤¤":1841,"à¤£à¤ľ":1842,"à¤£à¤Ļ":1843,"Ġà¤ħà¤®à¤¨":1844,"Ġà¤ħà¤µà¤¨":1845,"Ġà¤ħà¤®à¤¦":1846,"Ġà¤¨à¤Ĺ":1847,"Ġà¤¨à¤¯à¤¸":1848,"Ġà¤¨à¤¶à¤¤":1849,"à¤ļà¤¤à¤®":1850,"à¤ļà¤¯à¤¤":1851,"à¤ļà¤ļà¤ķ":1852,"à¥Ĥà¤ĥà¥Ĵ":1853,"à¤Ĺà¤¸à¤®":1854,"à¤¥à¤ª":1855,"à¤¥à¤¥":1856,"Ġà¤ķà¤¬":1857,"Ġà¤ķà¤Ļ":1858,"Ġà¤¶à¤²":1859,"Ġà¤¶à¤¤à¤®":1860,"Ġà¤¶à¤®à¤¹":1861,"Ġà¤°à¤ľà¤¯":1862,"Ġà¤ļà¤·":1863,"Ġà¤ĩà¤¹":1864,"Ġà¤ĩà¤¦à¤¨":1865,"Ġà¤Ńà¤¯à¤¨":1866,"Ġà¤¬à¤¡":1867,"Ġà¤Ĩà¤ĸ":1868,"Ġà¤Ĩà¤½à¤µ":1869,"à¤½à¤ľà¤¨":1870,"à¤½à¤½à¤¨":1871,"à¤½à¤ªà¤¸":1872,"à¤½à¤½à¤Ĺ":1873,"à¤½à¤ī":1874,"à¤½à¤µà¤¦à¤¨":1875,"à¤Łà¤®à¤¸":1876,"à¤Łà¤ªà¤¦":1877,"à¤ŀà¤®à¤¤":1878,"à¤ŀà¤®à¤¯":1879,"Ġà¤ªà¤°à¤¸":1880,"à¤Ľà¤®à¤¨":1881,"à¤Ľà¤¦à¤µ":1882,"à¤łà¤¥":1883,"à¤łà¤®à¤§":1884,"Ġà¤ıà¤°":1885,"Ġà¤ıà¤£":1886,"Ġà¤ıà¤Ń":1887,"à¤¤à¤®à¤¥":1888,"à¤¤à¤®à¤¬":1889,"à¤ªà¤¤à¤¤":1890,"à¤¬à¤¯":1891,"à¤¬à¤¬":1892,"à¤ĺà¤¨à¤¦":1893,"à¤®à¤¨à¤µ":1894,"à¤¤à¤°à¤¨":1895,"à¤¤à¤°à¤µ":1896,"à¤¤à¤°à¤¸":1897,"à¤¤à¤°à¤¶":1898,"à¤¤à¤°à¤£à¤®":1899,"à¤¯à¤®à¤¤":1900,"à¤¯à¤®à¤¦":1901,"à¤¯à¤®à¤Ń":1902,"à¤µà¤¨à¤¸":1903,"à¤°à¤®à¤Ĺ":1904,"Ġà¤ĭà¤¦":1905,"à¤µà¤°à¤°":1906,"à¤ĸà¤°":1907,"à¤ĸà¤¤":1908,"à¤¤à¤¯à¤¦":1909,"à¤µà¤®à¤°":1910,"à¤µà¤®à¤¤":1911,"à¤µà¤®à¤¦":1912,"Ġà¤¯à¤¤à¤¨":1913,"à¤°à¤µà¤¯à¤¤":1914,"á³ªà¤¸à¤®":1915,"à¤¨à¤®à¤·":1916,"à¤¨à¤®à¤ķ":1917,"à¤¨à¤®à¤Ń":1918,"à¤®à¤¤à¤ķ":1919,"à¤¡à¤¨":1920,"à¤³à¤¨":1921,"Ġà¤ħà¤¨à¤µ":1922,"à¤°à¤¯à¤¦":1923,"à¤°à¤¯à¤¥":1924,"Ġà¤ľà¤¨à¤¤":1925,"Ġà¤ľà¤¨à¤¯":1926,"Ġà¤¯à¤ľà¤§":1927,"Ġà¤·à¤¸":1928,"Ġà¤·à¤¦à¤ª":1929,"à¤ľà¤¨à¤¯à¤¤":1930,"Ġà¤°à¤¥à¤¸":1931,"à¤¨à¤¸à¤¸":1932,"Ġà¤¤à¤¦à¤ª":1933,"Ġà¤ªà¤¤à¤¨":1934,"Ġà¤Ĭà¤µ":1935,"à¤µà¤¦à¤¸":1936,"à¤°à¤¥à¤¯":1937,"à¤®à¤¦à¤®":1938,"à¤®à¤¦à¤¸":1939,"à¤®à¤¦à¤ª":1940,"à¤®à¤¦à¤Ĺ":1941,"Ġà¤²à¤²":1942,"Ġà¤Īà¤®":1943,"Ġà¤Īà¤ľ":1944,"Ġà¤ĵà¤¦":1945,"Ġà¤ĵà¤¹à¤¸":1946,"Ġà¤ĵà¤·à¤¤":1947,"à¤¯à¤¦à¤¹":1948,"à¤§à¤¯à¤¶":1949,"à¤®à¤®à¤§":1950,"à¤¦à¤¯à¤¥":1951,"à¤£à¤¸à¤®":1952,"à¤°à¤¶à¤¸":1953,"Ġà¤ħà¤¦à¤°":1954,"à¤½à¤µà¤§":1955,"Ġà¤§à¤¨à¤ªà¤¤":1956,"à¤®à¤Ĺà¤µ":1957,"Ġà¤½à¤ļ":1958,"Ġà¤½à¤½à¤¨":1959,"Ġà¤½à¤½à¤¯":1960,"à¤£à¤®à¤ķ":1961,"Ġà¤Ńà¤µà¤¥":1962,"à¤®à¤§à¤¤":1963,"Ġà¤Ĩà¤ªà¤ª":1964,"Ġà¤¸à¤ļà¤¸":1965,"Ġà¤¦à¤¦à¤¦":1966,"Ġà¤ªà¤¶à¤µ":1967,"Ġà¤¹à¤¨à¤¤":1968,"Ġà¤Ĩà¤¦à¤¹":1969,"à¤¯à¤ªà¤ķ":1970,"à¥Ħà¤Ĥ":1971,"à¥Ħà¤ģ":1972,"à¤°à¤Ńà¤µà¤¦":1973,"à¤«à¤°":1974,"à¤«à¤²":1975,"à¤°à¤§à¤®":1976,"à¤¦à¤¦à¤Ń":1977,"Ġà¤ħà¤ľà¤Ĺ":1978,"à¤°à¤ķà¤²":1979,"à¤¨à¤¶à¤®":1980,"Ġà¤¸à¤¹à¤¸à¤¸":1981,"à¤¯à¤½à¤ŀ":1982,"à¤¯à¤½à¤Ļ":1983,"à¤¯à¤½à¤ĸ":1984,"Ġà¤Ĳà¤²":1985,"à¤¯à¤½à¤ļà¤²à¤¦":1986,"Ġà¤Ķà¤°":1987,"Ġà¤¸á³ªà¤°à¤°":1988,"à¤½à¤½à¤Ľ":1989,"à¤ªà¤µà¤¸à¤¨":1990,"à¤°à¤īà¤·":1991,"Ġá³ªà¤·":1992,"à¤¼":1993,"à¥Ĵà¥ĳ":1994,"à¤°à¤µà¤¨":1995,"à¤°á³ªà¤¹":1996,"à¤¤à¤£":1997,"à¤¤à¤µà¤¸":1998,"à¤¤à¤Ļ":1999}