#version: 0.2
à ¤
à ¥
Ġ à¤
à¥ į
à¥ Ĵ
à¥ ĳ
à¤ ¾
à¤ °
à¤ ¤
à¤ ¿
à¤ ¨
à¤ µ
à¤ ¯
à¤ ®
à¥ ĩ
à¥ ģ
à¤ ¸
Ġ à¥
à¥ ĭ
à¤ Ĥ
č Ċ
à¤ ¦
Ġà¤ ¸
à¤ ·
Ġà¤ µ
à¤¿ à¥Ĵ
à¤¾ à¥Ĵ
Ġà¥ ¤
Ġà¤ ª
à¤¾ à¥ĳ
à¤ ĥ
à¤ ¹
à¥ Ģ
Ġà¥ ¥
e o
Ġ <
eo s
à¥ ĥ
à¤ ¶
à¤ ª
Ġà¤ ¤
Ġà¤ ¯
à¤ ķ
à¤¿ à¥ĳ
Ġà¤ ®
à¤ §
I G
R IG
Ġà¤ ¦
à¤ £
à¥ģ à¥Ĵ
Ġà¤ ħ
à¤ ľ
à¤ Ń
à¥ĩ à¥Ĵ
A R
A T
H AR
V A
AT HAR
ATHAR VA
Ġà¤ ¨
à¤ ļ
à¥ĭ à¥Ĵ
à¥ Ĥ
à¤ Ĺ
à¥ĩ à¥ĳ
à¤ ¥
à¥ģ à¥ĳ
à¥ĭ à¥ĳ
à¤Ĥ à¥Ĵ
Ġà¤ ķ
Ġà¤ ¶
Ġà¤ °
A J
U R
Y AJ
YAJ UR
à¤Ĥ à¥ĳ
Ġà¤ ľ
Ġà¤ ¹
à¥ĥ à¥Ĵ
Ġà¤ ļ
à¥Ģ à¥Ĵ
Ġà¤ ĩ
Ġà¤ Ń
Ġà¤ Ĺ
Ġà¤ ¬
Ġà¤ Ĩ
à¤ ½
à¥ Ī
Ġà¤ ī
à¥Ĥ à¥Ĵ
à¤ Ł
Ġà¤ §
à¤ ŀ
à¤¾ à¤Ĥ
à¤ĥ à¥ĳ
à¥ĥ à¥ĳ
à¤ ²
à¥Ģ à¥ĳ
à¤¾ à¤ĥ
à¥ Į
à¤µ à¤¤
Ġà¤ĩ à¤¨
Ġà¤ª à¤°
à¤ Ľ
à¤ ł
à¤¿ à¤ĥ
Ġà¤ ı
à¤¤ à¤®
à¤ª à¤¤
à¤¯ à¤¤
à¤° à¤¤
à¤ ¬
Ġà¤µ à¤°
à¤ ĺ
Ġà¤¯ à¤¦
à¤¿ à¤Ĥ
à¤® à¤¨
à¤ĥ à¥Ĵ
à¤¤ à¤°
à¤¾ à¤Ĥà¥Ĵ
à¤µ à¤¸
à¥Ĥ à¥ĳ
à¤¾ à¤Ĥà¥ĳ
à¤¯ à¤®
à¤¯ à¤¨
à¤µ à¤¨
à¤° à¤¸
î Ģ
îĢ ģ
à¤ Ļ
à¤° à¤®
Ġà¤® à¤¨
à¤¤ à¤¸
Ġà¤ ĭ
à¤µ à¤°
à¤® à¤¸
Ġà¤¸ à¤°
Ġà¤µ à¤¸
à¤ ģ
à¤ ĸ
à¥ģ à¤ĥ
à¤¯ à¤¸
Ġà¤¸ à¤®
à¤¤ à¤¯
à¤µ à¤®
à¤® à¤¹
Ġà¤¯ à¤¤
à¤° à¤¹
à¤° à¤µ
³ ª
á ³ª
à¤¾ à¤ģ
Ġà¤ ĺ
à¤½ à¤¸
à¤¨ à¤®
Ġà¤ħ à¤¸
Ġà¤¨ à¤®
à¥Ī à¥Ĵ
Ġà¤¯ à¤¸
à¥Ī à¥ĳ
Ġà¤® à¤§
à¤® à¤¤
à¤ ¡
à¤¹ à¤¸
à¤ ³
Ġà¤ħ à¤¨
Ġà¤ħ à¤Ĺ
à¤¤ à¤µ
Ġà¤¤ à¤¸
Ġà¤® à¤¹
à¤° à¤¯
Ġà¤ħ à¤§
Ġà¤ľ à¤¨
Ġà¤¯ à¤ľ
Ġà¤ ·
Ġà¤¦ à¤§
à¤ľ à¤¨
Ġà¤¹ à¤°
à¤· à¤¸
Ġà¤® à¤°
à¤¯ à¤µ
Ġà¤° à¤¥
à¤¨ à¤¸
Ġà¤ī à¤ª
Ġà¤¤ à¤¦
à¤· à¤¤
Ġà¤ª à¤¤
Ġà¤¯ à¤¥
Ġà¤ Ĭ
à¤µ à¤¦
à¤µ à¤¯
à¤° à¤¥
Ġà¤ħ à¤ª
à¤® à¤¦
Ġà¤¤ à¤®
à¤¿ à¤Ĥà¥Ĵ
Ġà¤ħ à¤°
à¥ģ à¤Ĥ
à¥Ģ à¤ĥ
à¤¹ à¤¤
à¤° à¤¨
à¤· à¤£
Ġà¤ ²
Ġà¤¤ à¤¤
Ġà¤¸ à¤µ
Ġà¤ Ī
à¤¤ à¤¨
à¤¦ à¤¸
Ġà¤¹ à¤µ
Ġà¤ ĵ
Ġà¤® à¤¦
à¤° à¤¦
Ġà¤¸ à¤¹
à¤¨ à¤¯
Ġà¤¸ à¤¨
Ġà¤ħ à¤¤
à¥Į à¥Ĵ
Ġà¤¤ à¤µ
à¤ļ à¤¤
à¤¯ à¤¦
Ġà¤ħ à¤µ
Ġà¤µ à¤¨
à¤¹ à¤¨
à¥Į à¥ĳ
à¤§ à¤¯
à¤· à¤®
Ġà¤ Ľ
à¤§ à¤¸
Ġà¤ļ à¤ķ
à¤® à¤®
à¤¦ à¤¨
à¤¦ à¤¯
à¤£ à¤¸
à¤° à¤¶
Ġà¤¶ à¤°
à¤¿ à¤Ĥà¥ĳ
à¤® à¤°
à¤¸ à¤¤
à¥Ģ à¤Ĥ
à¤ª à¤°
à¤¨ à¤¨
Ġà¤ħ à¤¦
Ġà¤ħ à¤¶
à¤® à¤µ
Ġà¤ī à¤¦
à¤½ à¤¨
à¤½ à¤µ
à¤¿ à¤ĥà¥ĳ
à¤¦ à¤¤
à¤¯ à¤ľ
Ġà¤¤ à¤¨
Ġà¤§ à¤¨
à¤® à¤Ĺ
Ġà¤° à¤ķ
Ġà¤ķ à¤°
Ġà¤ ½
Ġà¤¦ à¤ķ
Ġà¤¸ à¤¦
Ġà¤¸ à¤ĸ
à¤¾ à¤ĥà¥ĳ
à¤® à¤Ń
Ġà¤¯ à¤¨
à¤½ à¤§
Ġà¤µ à¤ľ
à¥Ī à¤ĥ
à¤ļ à¤ķ
à¤£ à¤®
Ġà¤Ń à¤µ
Ġà¤µ à¤¯
à¤¤ à¤¤
à¤µ à¤ª
à¤ª à¤¦
Ġà¤¨ à¤°
à¤¤ à¤¦
à¤µ à¤§
à¤ĺ à¤µ
à¤· à¤¨
Ġà¤¯ à¤ļ
à¤® à¤§
à¤¯ à¤¯
à¤¸ à¤®
Ġà¤¨ à¤µ
à¤¨ à¤µ
Ġà¤µ à¤¹
à¤¦ à¤®
à¤¹ à¤®
à¤° à¤ľ
Ġà¤Ĩ à¤ª
à¤µ à¤¶
à¤° à¤ª
Ġà¤ª à¤¯
à¤µ à¤µ
à¥ĭ à¤ĥ
à¤µ à¤ķ
à¤® à¤ª
à¤¶ à¤¤
à¤Ľ à¤¤
Ġà¤Ń à¤Ĺ
à¤® à¤¶
à¤· à¤¦
à¤· à¤¯
à¤® à¤¯
Ġà¤Ń à¤°
Ġà¤ī à¤¤
Ġà¤ı à¤ķ
à¤ª à¤¸
Ġà¤ħ à¤¥
Ġà¤¶ à¤¤
Ġà¤Ĺ à¤°
Ġà¤Ľ à¤¨
Ġà¤¸ à¤ļ
à¤¯ à¤¶
à¤ľ à¤¯
Ġà¤ķ à¤²
à¤¹ à¤¦
à¤ķ à¤®
Ġà¤ĩ à¤¤
Ġà¤ħ à¤®
à¤¾à¤ĥ à¥Ĵ
Ġà¤¦ à¤¦
à¤ª à¤¯
Ġà¤¯ à¤ķ
à¤Ľ à¤¨
Ġà¤° à¤ľ
à¤¸ à¤¨
Ġà¤ħ à¤¹
à¤½ à¤Ń
Ġà¤¨ à¤ķ
à¤¸ à¤¦
à¤¶ à¤¨
à¤ľ à¤¤
Ġà¤ļ à¤°
à¤¿à¤ĥ à¥Ĵ
Ġà¤ª à¤ŀ
à¤¦ à¤§
Ġà¤ħ à¤Ń
à¤° à¤£
Ġà¤ª à¤¶
Ġà¤¤ à¤ª
à¤ļ à¤°
à¤µ à¤·
Ġà¤® à¤¯
à¤¤ à¤ª
à¤½ à¤ª
à¤¶ à¤¸
Ġà¤¶ à¤µ
à¥Ĵ îĢģ
Ġà¤Ĩ à¤¯
à¤§ à¤¨
Ġà¤¹ à¤¨
Ġà¤ļ à¤¤
Ġà¤Ĩ à¤¸
à¤½ à¤Ĺ
Ġà¤ª à¤µ
à¤¹ à¤µ
Ġà¤ĵ à¤·
Ġà¤¯ à¤¶
Ġà¤® à¤®
Ġà¤ħ à¤ļ
Ġà¤Ĺ à¤µ
à¤§ à¤¤
Ġà¤Ĩ à¤¦
à¤½ à¤°
Ġà¤¯ à¤µ
à¤¯ à¤¥
à¤µ à¤¹
Ġà¤Ĺ à¤ļ
Ġà¤ľ à¤Ĺ
à¤¯ à¤ª
à¥ Ħ
Ġà¤¦ à¤¶
Ġà¤ £
à¤° à¤Ń
Ġà¤ħ à¤ķ
Ġà¤ĩ à¤µ
Ġà¤ĩ à¤·
à¤½ à¤®
Ġà¤¸ à¤¤
Ġà¤¬ à¤²
à¤ľ à¤¸
Ġà¤¶ à¤®
à¥ģ à¤Ĥà¥Ĵ
à¤£ à¤¨
à¤¯ à¤ļ
à¤® à¤£
à¤ļ à¤¨
Ġà¤¯ à¤®
à¤ķ à¤°
Ġà¤¹ à¤¸
à¤¾à¤ģ à¥Ĵ
à¤¯ à¤Ĺ
à¤¦ à¤¶
à¤¦ à¤¥
Ġà¤¦ à¤¸
Ġà¤µ à¤ļ
Ġà¤ľ à¤°
à¤¯ à¤°
Ġà¤ĩ à¤¦
Ġà¤ ĸ
à¤ŀ à¤¸
à¤ª à¤¨
Ġà¤ĭ à¤·
à¤µ à¤ľ
à¤µ à¤ļ
à¤ª à¤¶
à¤Ń à¤°
à¤ «
à¤¤ à¤¶
à¥ĩ à¤ĥ
à¤° à¤ļ
Ġà¤ĵ à¤ľ
à¤Ń à¤µ
à¤¾à¤ģ à¥ĳ
à¤° à¤§
à¥ģ à¤Ĥà¥ĳ
à¤¦ à¤¦
à¥Ģ à¤Ĥà¥Ĵ
Ġà¤ķ à¤¸
à¤½ à¤¶
à¤ŀ à¤®
Ġà¤ª à¤¨
à¤½ à¤¦
à¤¸ à¤¸
Ġà¤¸ à¤ª
Ġà¤ħ à¤ľ
à¤¨ à¤¤
à¤¯ à¤§
à¤Ĺ à¤®
à¤Ń à¤¸
á³ª à¤¸
à¤Ń à¤¯
Ġà¤§ à¤°
à¥ĳ îĢģ
à¤¶ à¤¯
à¤¨ à¤ķ
à¤° à¤ķ
Ġà¤® à¤¤
à¤£ à¤µ
à¤½ à¤¤
à¤¨ à¤¶
à¥ģ à¤ĥà¥ĳ
à¤Ń à¤Ĺ
Ġà¤¤ à¤°
Ġà¤¨ à¤Ń
Ġà¤¦ à¤®
Ġà¤ħ à¤Ļ
à¤ľ à¤°
Ġà¤¸ à¤¹à¤¸
à¤§ à¤®
à¤¦ à¤°
à¤ľ à¤®
à¤ ¢
à¤¾ îĢģ
à¤½ à¤¹
à¤¤ à¤ķ
Ġà¤ľ à¤¯
Ġà¤Ĩ à¤¹
Ġà¤° à¤¸
à¤° à¤°
à¤¸ à¤°
Ġà¤Ń à¤µà¤¤
à¤¯ à¤ķ
à¤¾à¥ĳ îĢģ
à¤½ à¤¯
à¤° à¤Ĺ
à¤¨ à¤°
à¤§ à¤°
à¤¿ îĢģ
Ġà¤Ĭ à¤°
à¤® à¤ķ
à¤¶ à¤µ
Ġà¤¶ à¤¶
Ġà¤¶ à¤ļ
Ġà¤Ĺ à¤¨
à¥Ģ à¤Ĥà¥ĳ
â Ģ
Ġà¤ĭ à¤¤
Ġ âĢ
à¥ģ à¤ĥà¥Ĵ
Ġà¤¨ à¤ª
à¤ł à¤¤
à¤¯ à¤½
à¤· à¤§
Ġà¤¤ à¤¯
Ġà¤¦ à¤°
Ġà¤¬ à¤¹
à¤ ħ
à¤µ à¤Ń
Ġà¤Ĩ à¤Ĺ
Ġà¤ Ĳ
à¤µ à¤£
à¤® à¤ļ
à¤ļ à¤¸
Ġà¤§ à¤¤
à¤ ĭ
Ġà¤µ à¤¦
Ġà¤° à¤¤
Ġà¤° à¤£
Ġà¤Ń à¤µà¤¨
à¤® à¤¥
à¤¦ à¤µ
Ġà¤¶ à¤ķ
à¤® à¤ľ
à¤ĺ à¤µà¤¨
à¤¨ à¤ª
à¤¾à¥Ĵ îĢģ
à¤Ł à¤¯
Ġà¤ı à¤¤
à¤¹ à¤°
à¤£ à¤¶
Ġà¤Ĩ à¤µ
à¤· à¤ľ
à¤· à¤°
Ġà¤µ à¤¶
Ġà¤ı à¤¨
Ġà¤¸ à¤¸
à¤ª à¤®
à¤¥ à¤®
Ġà¤ľ à¤¹
à¥Ĥ à¤ĥ
Ġà¤° à¤¯
à¥ ł
Ġà¤µ à¤§
à¤Ĺ à¤¨
à¤µ à¤Ĺ
Ġà¤µ à¤ķ
à¤ª à¤µ
à¤¦ à¤ķ
à¤¯ à¤ŀ
Ġà¤® à¤ĺà¤µ
à¤Ĺ à¤¸
Ġà¤ķ à¤¤
Ġà¤ķ à¤£
Ġà¤ī à¤°
Ġà¤ª à¤ļ
Ġà¤ķ à¤¶
Ġà¤ľ à¤ľ
Ġà¤Ĩ à¤°
à¤¨ à¤¹
Ġà¤µ à¤ª
Ġà¤¯ à¤¯
à¤£ à¤¯
Ġà¤ħ à¤¯
Ġà¤ı à¤¹
Ġà¤Ī à¤¶
à¤¨ à¤¦
à¤¯ à¤Ļ
Ġà¤¨ à¤¯
à¤¸ à¤µ
à¤· à¤ķ
à¤¹ à¤¯
à¤¶ à¤®
à¤½ à¤Ļ
Ġà¤ī à¤·
à¤Ł à¤®
à¥Į à¤ĥ
à¤ķ à¤¨
à¤£ à¤¤
Ġà¤Ĩ à¤¶
à¤¹ à¤£
à¤ķ à¤¸
à¥Ĥ à¤Ĥà¥ĳ
à¤½ à¤ľ
à¤¿à¥Ĵ îĢģ
à¤¹ à¤ª
à¤ª à¤¯à¤¤
à¤Ł à¤°
á³ª à¤¶
à¤¤ à¤Ń
à¤£ à¤ķ
à¥Ħ à¥Ĵ
à¤¯ á³ª
Ġà¤ª à¤µà¤¤
à¥Ĥ à¤ģ
à¤ĸ à¤¸
Ġà¤ª à¤ª
à¤½ à¤¥
à¤¬ à¤°
à¤® à¤Ļ
Ġà¤Ĩ à¤¨
Ġà¤ı à¤·
à¤°à¤¹ à¤¨
à¤³ à¤¹
à¤¨ à¤ľ
à¤¨ à¤¥
à¤ª à¤¥
à¤° à¤¯à¤¨
à¤¸ à¤¹
à¤· à¤Ń
Ġà¤¤ à¤ķ
Ġà¤® à¤ĺà¤µà¤¨
à¤ļ à¤¯
à¤µ à¤¥
à¤ļ à¤²
Ġà¤ķ à¤¦
Ġà¤ī à¤ļ
à¤² à¤®
à¤ªà¤¤ à¤¯
à¥ĭ à¤ĥà¥Ĵ
Ġà¤µ à¤¹à¤¨
Ġà¤¦ à¤¤
Ġà¤ħ à¤¬
Ġà¤ķ à¤µ
à¤² à¤¶
à¤ł à¤°
à¤ł à¤®
à¤¬ à¤¤
à¥Ģ à¤ĥà¥Ĵ
à¤¿à¥ĳ îĢģ
Ġà¤ľ à¤Ļ
Ġà¤Ĺ à¤®
à¤² à¤¯à¤ľ
à¤ĺ à¤®
Ġà¤ «
à¤¸ à¤¶
à¤¦ à¤¯à¤¤
à¥Ģ à¤ģ
à¤§ à¤µ
Ġà¤¨ à¤¸
à¤ļ à¤¦
à¤Ĺ à¤°
Ġà¤ĩ à¤³
à¤¤à¤® à¤¶
á³ª à¤¹
Ġà¤½ à¤Ĺ
à¤¦ à¤ª
à¤¦ à¤Ń
à¥Į à¤Ĥ
à¤¬ à¤¨
à¤° à¤¯à¤¤
Ġà¤¸ à¤ľ
à¤ķ à¤µ
Ġà¤ķ à¤®
Ġà¤¶ à¤¯
Ġà¤Ĺ à¤Ń
Ġà¤¬ à¤¨
Ġà¤¬ à¤Ń
à¥Ī à¤ĥà¥ĳ
à¤® à¤£à¤¸
à¤¦ à¤¯à¤¨
Ġà¤µ à¤·
à¤¶ à¤¨à¤®
à¤ļ à¤®
à¥Ĥ à¤Ĥ
Ġà¤ķ à¤¨
Ġà¤° à¤°
à¤³ à¤¤
à¤¯à¤½ à¤ļà¤²
à¤¤ à¤¹
Ġà¤ļ à¤¨
Ġà¤Ĩ à¤Ń
ĠâĢ ľ
à¤¯ à¤Ń
Ġà¤ª à¤µà¤¸
à¤¶ à¤Ļ
à¤ª à¤¯à¤¨
Ġà¤¤ à¤¥
à¤Ĺ à¤µ
à¤½ à¤·
à¤½ à¤£
à¤½ à¤µà¤¨
à¤ŀ à¤ª
à¤ĺ à¤¨
à¤°à¤¥ à¤®
Ġà¤¶à¤¤ à¤ķ
à¤ħ à¤¥
à¤® à¤µà¤°
Ġà¤¸ à¤§
Ġà¤¸ à¤ªà¤¤
à¤¶ à¤ķ
Ġà¤ħ à¤·
Ġà¤Ĩ à¤ľ
à¤Ľ à¤®
à¤Ľ à¤¤à¤®
à¤¨ à¤Ń
à¤¦ à¤¹
à¤¦ à¤Ĺ
à¤Ń à¤¤
Ġà¤ĩ à¤¯
à¤³ à¤¯
à¤¸ à¤¯
à¥Ģ à¤ĥà¥ĳ
Ġà¤° à¤¨
à¤½ à¤ķ
à¤² à¤¸
à¤Ľ à¤¸
à¤¨ à¤®à¤¸
à¤· à¤Ĺ
Ġà¤µ à¤µ
à¤¶ à¤°
à¤ķ à¤¶
à¤§ à¤¯à¤¨
Ġà¤ħ à¤ĺ
à¤ľ à¤Ĺ
Ġà¤Ĩ à¤¤
à¤¯ à¤½à¤®
Ġà¤ª à¤¦
à¤¶ à¤¦
à¤Ń à¤¨
Ġà¤¨ à¤¶
Ġà¤ľ à¤®
Ġà¤Ń à¤ķ
à¤Ł à¤ª
Ġà¤Ī à¤¡
ĠâĢ Ŀ
à¤¤ à¤¬
à¤¹ à¤ļ
à¤¥ à¤¸
Ġà¤ī à¤ķ
à¤°à¤® à¤¸
Ġà¤ Ķ
à¤¤ à¤§
à¤¨ à¤§
à¤Ĺ à¤¤
à¤¥ à¤¨
Ġà¤ķ à¤ķ
Ġà¤Ĩ à¤ķ
à¤ł à¤¸
Ġà¤ı à¤®
Ġà¤ĭ à¤Ń
Ġà¤· à¤¡
à¤¤ à¤¥
à¤¨ à¤Ĺ
à¤µ à¤½à¤°
à¤¯ à¤µà¤°
Ġà¤Ĺ à¤¯
Ġà¤¬ à¤°
à¤½ à¤µà¤¤
à¤Ł à¤¤
à¤¤à¤® à¤¨
à¤¤à¤® à¤¸
à¤° à¤¬
à¤¤ á³ª
à¤¯ à¤¹
à¤¯ à¤®à¤¨
à¤¯ à¤½à¤¸
à¥ĭ à¤ĥà¥ĳ
à¤· à¤µ
Ġà¤µ à¤¨à¤¸
à¤¶ à¤ļ
Ġà¤¨ à¤¹
à¤ĺ à¤¶
Ġà¤· à¤Ł
à¤¹ à¤¶
à¤ķ à¤²
à¤Ĺ à¤ļ
à¤½ à¤ļ
à¤Ľ à¤°
à¤ł à¤¨
à¤ł à¤¯
Ġà¤µà¤¸ à¤µ
á³ª à¤¶à¤¤
Ġà¤¯à¤ľ à¤¤
Ġà¤ħà¤¥ à¤°
Ġà¤¸à¤ļ à¤¨
Ġà¤¸ à¤ķ
à¤ª à¤ļ
à¤ľ à¤µ
Ġà¤° à¤µ
Ġà¤ī à¤¨
à¤µà¤¤ à¤®
Ġà¤ªà¤° à¤®
à¤ĺ à¤¤
Ġà¤¯à¤¦ à¤¸
à¤¦à¤¸ à¤®
à¤°à¤¦ à¤¤
Ġà¤½ à¤°
Ġà¤Ĳ à¤¨
à¤µ à¤²
à¤µ à¤¯à¤¨
Ġà¤µ à¤¹à¤¤
à¤¹ à¤¥
à¤¶ à¤Ń
Ġà¤¤ à¤ļ
Ġà¤¦ à¤¹
Ġà¤¶ à¤µà¤¸
Ġà¤¬ à¤§
Ġà¤½ à¤¨
à¥Ĥà¤ģ à¥ĳ
à¤° à¤Ļ
à¤µ á³ª
à¤¯ à¤·
à¤® à¤ĺ
Ġà¤¸ á³ª
Ġà¤ª à¤¸
à¤§ à¤¯à¤¤
à¤Ĺ à¤²
à¤¥ à¤µ
Ġà¤° à¤ª
Ġà¤¹ à¤µà¤¨
à¤Ł à¤¨
à¤°à¤® à¤¤
à¤° à¤·
à¤¦ à¤ľ
à¥ĥ à¤Ĥ
à¤ķ à¤¯
à¤ķ à¤ª
à¤Ń à¤®
à¤ļ à¤¥
Ġà¤Ń à¤¦
à¤¬ à¤²
à¤°à¤® à¤µ
à¤ģ à¥Ĵ
Ġà¤½ à¤ª
Ġà¤ĸ à¤¨
à¤ ī
à¤° á³ª
à¤¨ à¤¯à¤¨
à¤¸ à¤ĸ
à¤¦ à¤Ļ
Ġà¤¸ à¤¶
Ġà¤¸ à¤²
Ġà¤µ à¤²
Ġà¤ª à¤²
à¤ª à¤ķ
Ġà¤® à¤£
à¤ľ à¤¥
à¤Ĺ à¤ª
à¤¥ à¤¯
Ġà¤¶ à¤ª
Ġà¤ļ à¤°à¤¤
Ġà¤ĩ à¤°
à¥Ī à¤ĥà¥Ĵ
à¤¬ à¤Ń
Ġà¤ĭ à¤ķ
à¤¦à¤¯ à¤§
à¤° à¤®à¤¨
à¤¤ à¤ľ
à¤¦ à¤¯à¤¸
à¥ĥ îĢģ
Ġà¤® à¤ĺ
à¤§ à¤¶
à¤ľ à¤ľ
Ġà¤ķ à¤ª
Ġà¤ľ à¤ĺ
Ġà¤ĩ à¤¡
Ġà¤Ń à¤ľ
Ġà¤ı à¤µ
à¤¤à¤® à¤®
Ġà¤ĭ à¤ļ
á³ª à¤·
Ġà¤Ĭ à¤§
Ġà¤Ī à¤³
à¥ °
à¤¤ à¤ĭ
à¤µ à¤¯à¤¤
à¤¯ à¤ľà¤¨
Ġà¤¸ à¤Ń
Ġà¤¸ à¤Ĺ
Ġà¤¸ à¤°à¤¸
Ġà¤¸ à¤ļà¤¤
à¤· à¤¥
à¤· à¤¤à¤®
à¤· à¤°à¤¨
Ġà¤ª à¤¥
à¤ª à¤²
Ġà¤¤ à¤ľ
à¤Ń à¤µà¤¤
Ġà¤¨ à¤¯à¤¤
Ġà¤¨ à¤®à¤¨
à¤¥ à¤¤
Ġà¤ķ à¤¯
Ġà¤° à¤®
Ġà¤° à¤¶
Ġà¤Ĩ à¤§
à¤½ à¤¹à¤®
à¤ŀ à¤µ
Ġà¤ı à¤¦
Ġà¤ĭ à¤ľ
Ġà¤ĺ à¤°
à¤¡ à¤¤
Ġà¤½ à¤¸
ĠâĢ ĵ
Ġà¤« à¤²
à¤¯à¤½à¤ļà¤² à¤¤
à¤¤ à¤ļ
à¤¨ á³ª
à¤® à¤ĸ
à¤¸ à¤ª
Ġà¤¸ à¤¬
à¤· à¤¹
à¥Ģ îĢģ
à¤ª à¤ª
Ġà¤¦ à¤¨
à¤ļ à¤°à¤¤
Ġà¤° à¤Ń
Ġà¤ļ à¤®
Ġà¤Ń à¤°à¤¤
Ġà¤Ĩ à¤¸à¤¨
Ġà¤¯à¤¦ à¤°
à¤ľà¤¨ à¤¯
Ġà¤½ à¤Ń
à¤ ı
Ġà¤¦ à¤µ
à¤Ń à¤§
Ġà¤ľ à¤µ
Ġà¤ı à¤§
à¤³ à¤¸
Ġà¤Ī à¤®à¤¹
Ġà¤ĵà¤· à¤§
à¤¨ à¤ļ
à¤µ à¤ŀ
à¤µ à¤Ļ
à¤¯ à¤½à¤°
Ġà¤¸ à¤¯
Ġà¤ª à¤¡
à¤§ à¤¨à¤®
à¤£ à¤¦
à¤£ à¤ª
à¤ľ à¤¦
Ġà¤ľ à¤²
Ġà¤Ń à¤¸
Ġà¤Ń à¤Ļ
à¤½ à¤ĺ
à¤Ł à¤µ
à¤¯à¤® à¤°
à¤¯à¤® à¤¸
Ġà¤®à¤¦ à¤¨
à¤µà¤ķ à¤°
Ġà¤Ĳ à¤¤
á³ªà¤¶ à¤ļ
à¤° à¤µà¤¸
à¤° à¤¯à¤¸
à¤¤ à¤¯à¤¤
à¤¨ à¤Ļ
à¤¯ à¤¤à¤®
à¤¯ à¤ĺ
à¤® à¤¬
à¤¦ à¤ļ
Ġà¤µ à¤¦à¤¤
à¤¹ á³ª
à¤ª à¤ľ
Ġà¤® à¤²
Ġà¤¦ à¤Ńà¤¨
à¤£ à¤Ĺ
à¤Ń à¤µà¤¦
Ġà¤ķ à¤ļ
Ġà¤¶ à¤¨
Ġà¤° à¤ĺ
Ġà¤ľ à¤¯à¤¤
Ġà¤Ĺ à¤¹
Ġà¤Ĩ à¤¸à¤¤
Ġà¤ī à¤¶
Ġà¤§ à¤®
à¤ŀ á³ª
à¤¤à¤® à¤°
à¤¬ à¤§
à¤°à¤¹ à¤¸
à¤¡ à¤¯
à¤³ à¤®
à¤ľà¤¨ à¤¤
Ġà¤½ à¤µ
à¤¯à¤½à¤ļà¤² à¤¨
à¤° à¤ı
à¤¤ à¤¯à¤¨
à¤µ à¤®à¤¨
à¤¯ à¤µà¤¸
à¤® á³ª
à¤¸ à¤¥
Ġà¤¸ à¤¦à¤¤
Ġà¤ª à¤ķ
à¤¶ à¤§
à¤§ à¤ª
à¤§ à¤§
Ġà¤¦ à¤¯
à¤£ à¤®à¤¸
à¤ľ à¤¯à¤¨
à¤Ń à¤ľ
Ġà¤¨ à¤¨
à¤ļ à¤·
à¤ļ à¤¨à¤®
à¤Ĺ à¤¯
à¤Ĺ à¤¹
à¤Ĺ à¤£
Ġà¤° à¤¦
Ġà¤ľ à¤Ń
Ġà¤¬ à¤¦
Ġà¤ī à¤Ĺ
à¤Ł à¤¦
à¤Ł à¤ķ
à¤Ľ à¤µ
Ġà¤ı à¤ľ
à¤°à¤® à¤¦
à¤°à¤® à¤¹
à¤°à¤® à¤§
Ġà¤¦à¤§ à¤¨
à¤µà¤¦ à¤¨
Ġà¤ĵ à¤¤
Ġà¤µà¤¨ à¤¤
à¤¯à¤½ à¤ķ
Ġà¤Ĳ à¤·
à¤° à¤µà¤¤
à¤¤ à¤Ĺ
à¤¨ à¤¶à¤¤
à¤µ à¤½
à¤µ à¤¬
à¤¯ à¤µà¤¤
Ġà¤ª à¤µà¤®
à¤ª à¤¹
à¤ķ à¤Ń
Ġà¤® à¤ķ
à¤£ à¤§
Ġà¤ħ à¤²
à¤ľ à¤¹
à¤ľ à¤¯à¤¤
Ġà¤ķ à¤°à¤¤
Ġà¤Ĩ à¤ļ
à¤½ à¤¬
à¤½ à¤®à¤¨
Ġà¤ī à¤²
à¤² à¤¯
à¤Ľ à¤¥
à¤ĺ à¤°
à¤¡ à¤®
à¤¡ à¤¸
Ġà¤¦à¤§ à¤¤
à¤µà¤¦ à¤¤
à¤°à¤¥ à¤¨
Ġà¤Ī à¤¶à¤¤
Ġà¤½ à¤ªà¤µ
Ġà¤Ńà¤° à¤§
Ġà¤¶à¤¶ à¤®
à¤° à¤£à¤®
à¤¨ à¤®à¤¨
à¤µ à¤½à¤¸
à¥ĩ à¤ĥà¥ĳ
à¥ģ îĢģ
à¤¦ à¤¤à¤®
Ġà¤¸ à¤Ļ
à¤· à¤¶
Ġà¤¯ à¤®à¤¸
à¤ķ à¤¤
à¤ķ à¤£
Ġà¤® à¤¥
à¤§ à¤¤à¤®
Ġà¤ħ à¤µà¤¤
Ġà¤ħ à¤¨à¤®
à¤ļ à¤°à¤¨
à¤ļ à¤ªà¤¦
à¤°à¤¤ à¤ªà¤¤
à¤ĺ à¤¸
Ġà¤¯à¤¦ à¤¤
Ġà¤¯à¤¦ à¤¨
à¥Ĥà¥ĳ îĢģ
à¤¯à¤® à¤§
Ġà¤ĭ à¤§
Ġà¤ĭ à¤Ńà¤µ
à¤ĸ à¤®
à¤µà¤® à¤§
à¤¨à¤® à¤°
Ġà¤· à¤³
Ġà¤°à¤¥ à¤¨
Ġà¤ªà¤¤ à¤¤
à¤®à¤¦ à¤¨
à¤®à¤¦ à¤§
Ġà¤Ī à¤µ
à¤¤à¤¨ à¤¯
à¥Ħ à¥ĳ
à¤®à¤£ à¤µà¤°
à¥Ĥà¤ģ à¥Ĵ
Ġà¤µà¤² à¤Ĺ
à¤° à¤ĺ
à¤° à¤«
à¤¨ à¤µà¤¦
à¥ĩ à¤ĥà¥Ĵ
à¤¸ à¤²
Ġà¤µ à¤ŀ
Ġà¤µ à¤µà¤ķ
à¤¹ à¤®à¤¨
à¤¶ à¤¶
à¤ª á³ª
Ġà¤¤ à¤·
Ġà¤¯ à¤¹
Ġà¤¯ à¤®à¤¤
à¤ķ à¤¦
à¤ķ à¤ķ
à¤§ à¤¦
Ġà¤¦ à¤Ń
à¤£ à¤¬
Ġà¤ħ à¤ĸ
Ġà¤ħ à¤®à¤°
à¤ľ à¤Ĺà¤®
Ġà¤Ń à¤¯
Ġà¤Ĺ à¤¤
Ġà¤¬ à¤³
Ġà¤Ĩ à¤®
Ġà¤Ĩ à¤¶à¤¤
à¤½ à¤¨à¤®
à¤½ à¤½à¤¦
à¤² à¤ķ
à¤Ľ à¤¦
à¤¤à¤® à¤§
à¤¤à¤° à¤ľ
à¤¯à¤® à¤µ
à¤°à¤® à¤°
à¤ģ à¥ĳ
à¤ĸ à¤¯
à¤µà¤® à¤µ
à¤µà¤® à¤¶
Ġà¤ĺ à¤¸
à¤ľà¤¨ à¤¯à¤¨
à¤·à¤£ à¤®
Ġà¤ĵ à¤ķ
Ġà¤½ à¤§
Ġà¤½ à¤½à¤¦
à¤®à¤Ń à¤µ
à¤®à¤Ń à¤µà¤¤
à¤¯à¤¥ à¤¨
à¤ķà¤° à¤£à¤®
Ġà¤ĸ à¤²
Ġà¤¶à¤µà¤¸ à¤¸
à¤° à¤µà¤°
à¤° à¤ĸ
à¤¤ à¤·
à¤¨ à¤·
à¤¨ à¤Ł
à¤¨ à¤¯à¤¤
à¤µ à¤ĺ
à¤¯ à¤ªà¤°
à¤® à¤·
à¤® à¤ŀ
à¤¦ á³ª
à¤· à¤ª
Ġà¤µ à¤ªà¤¤
à¤¶ á³ªà¤¸
à¤ª à¤¸à¤®
Ġà¤¤ à¤²
Ġà¤¤ à¤ªà¤¤
à¤ķ à¤°à¤¤
Ġà¤¦ à¤¦à¤¤
à¤ľ à¤§
à¤ľ à¤¸à¤®
à¤Ń à¤¶
à¤Ń à¤ķ
à¤Ń à¤µà¤¨
à¤¥ à¤¶
Ġà¤¹ à¤¯
Ġà¤ļ à¤°à¤¨
Ġà¤Ń à¤°à¤¨
Ġà¤Ĺ à¤§
Ġà¤Ĩ à¤ŀ
à¤½ à¤½
à¤½ à¤½à¤°
Ġà¤ī à¤ľ
à¤Ł à¤¸
Ġà¤§ à¤¯
à¤Ľ à¤ķ
à¤ł à¤¦
Ġà¤ı à¤¨à¤®
à¤¤à¤® à¤µ
à¤°à¤¤ à¤ª
à¤ĺ à¤¦
Ġà¤¯à¤¦ à¤¯
Ġà¤¯à¤¦ à¤¹
Ġà¤¯à¤¦ à¤¶
Ġà¤¯à¤¦ à¤ķ
à¤®à¤¨ à¤®
à¤°à¤¸ à¤¨
à¤µà¤° à¤¨
Ġà¤ħà¤¸ à¤ª
à¤³ à¤Ń
à¤ľà¤¨ à¤¦
à¤°à¤¥ à¤¤
Ġà¤Ī à¤°à¤¤
Ġà¤Ī à¤³à¤¤
Ġà¤ĵ à¤¹
à¤°à¤¦ à¤ķ
à¤®à¤Ĺ à¤¨
Ġà¤½ à¤¯
Ġà¤½ à¤¹
à¤£à¤® à¤·
à¤½à¤Ń à¤µà¤¤
Ġà¤Ķ à¤¦
à¤ ĩ
à¤¤ à¤ªà¤¤
à¤¨ à¤µà¤¤
à¤µ à¤®à¤¸
à¤¯ à¤²
à¤¯ à¤¬
à¤¯ à¤µà¤¨
à¤¯ à¤¹à¤¸
à¤® à¤ķà¤°
Ġà¤¸ à¤®à¤¸
Ġà¤¸ à¤¦à¤¨
Ġà¤¸ à¤ªà¤°
à¤· à¤Ł
à¤· à¤®à¤¨
à¤· à¤¯à¤¨
à¤¹ à¤ľ
à¤¹ à¤¯à¤¨
à¥ĥ à¤Ĥà¥ĳ
à¤ª à¤µà¤¸
à¤£ à¤°
à¤£ à¤µà¤¤
à¤£ à¤µà¤¨
à¤£ á³ª
à¤£ à¤µà¤¦
Ġà¤ħ à¤ŀ
à¤ľ à¤¶
à¤ľ à¤Ń
à¤Ń à¤¦
Ġà¤¨ à¤¯à¤¨
à¤ļ à¤µ
à¤ļ à¤Ń
à¤Ĺ à¤¶
à¤Ĺ à¤§
à¤Ĺ à¤®à¤®
à¤Ĺ à¤®à¤µ
à¤¥ à¤°
Ġà¤¶ à¤¸
Ġà¤¶ à¤¤à¤°
Ġà¤ľ à¤¯à¤¨
Ġà¤¹ à¤°à¤¤
Ġà¤ĩ à¤§
Ġà¤ĩ à¤ļ
Ġà¤Ĺ à¤®à¤¯
Ġà¤¬ à¤ª
Ġà¤Ĩ à¤¬
à¤½ à¤½à¤µ
à¥ĥà¥ĳ îĢģ
à¤Ľ à¤ļ
à¤ł à¤®à¤°
à¤¤à¤® à¤¤
à¤¤à¤® à¤¦
à¤¤à¤® à¤Ĺ
à¤¬ à¤®
à¤¬ à¤¹
à¤¤à¤° à¤®
à¤¤à¤° à¤¦
à¤µà¤¸ à¤¸
à¤¤à¤¸ à¤®
à¤ĸ à¤¨
à¤ĸ à¤²
Ġà¤¸à¤® à¤¶
à¤¨à¤® à¤§
à¤¹à¤¸ à¤¸
à¤³ à¤¯à¤¨
à¤ľà¤¨ à¤¨
Ġà¤² à¤ķ
Ġà¤ĵ à¤®
à¤°à¤¦ à¤¦
à¤¯à¤¦ à¤¤
Ġà¤½ à¤®
Ġà¤½ à¤¦
Ġà¤½ à¤¶
à¤·à¤¯ à¤£à¤®
Ġà¤ıà¤ķ à¤µ
Ġà¤¦à¤¦ à¤¥
à¤½à¤Ń à¤µ
Ġà¤ħà¤Ń à¤µ
Ġà¤ħà¤Ń à¤µà¤¦
Ġà¤¦à¤¶ à¤ķ
Ġà¤¯à¤® à¤¬
à¤ĭ à¤¤
à¥ł à¤·
à¤¶à¤ķ à¤ª
à¤ī à¤ķ
à¤ Ĭ
à¤° à¤ŀ
à¤¤ à¤²
à¤¤ à¤¯à¤¸
à¤¤ à¤ªà¤¦
à¤µ à¤ªà¤¤
à¤µ à¤°à¤¸
à¤µ à¤¯à¤¸
à¤¯ à¤¯à¤¨
à¤¯ à¤ĸ
à¤¯ à¤¦à¤¸
à¤® à¤²
à¤® à¤¯à¤¨
à¤® à¤ĺà¤µ
à¤¸ à¤ķ
à¤¸ à¤ļ
à¤¸ à¤¨à¤®
à¤¦ à¤¬
Ġà¤¸ à¤®à¤¨
Ġà¤¸ á³ªà¤¸
Ġà¤¸ á³ªà¤¶
à¤· à¤ļ
à¤· à¤®à¤¸
à¤· à¤®à¤¤
à¤· à¤¦à¤¨
à¤· à¤¦à¤¤
Ġà¤µ à¤¦à¤¨
à¤¹ à¤§
à¤¹ à¤ªà¤¤
à¤¹ à¤¯à¤¤
à¤¶ à¤«
à¤ª à¤ŀ
à¤ª à¤¦à¤¸
à¤§ à¤¥
Ġà¤¦ à¤¯à¤¤
à¤£ à¤°à¤®
à¥ģà¥Ĵ îĢģ
Ġà¤ħ à¤£
à¤Ń à¤ŀ
à¤Ń à¤¯à¤¤
Ġà¤¨ à¤¦
à¤Ĺ à¤ľ
à¤Ĺ à¤Ń
à¤Ĺ à¤®à¤¤
à¤¥ à¤Ń
Ġà¤ķ à¤µà¤¯
Ġà¤¶ à¤·
Ġà¤¶ à¤Ļ
Ġà¤¶ à¤®à¤¸
Ġà¤¶ à¤ªà¤¥
Ġà¤° à¤§
Ġà¤ľ à¤°à¤¤
Ġà¤¹ à¤¤
Ġà¤¹ à¤µà¤¤
Ġà¤ĩ à¤ľ
Ġà¤ĩ à¤¯à¤°
Ġà¤Ń à¤¨
Ġà¤Ń à¤µà¤¸
Ġà¤Ń à¤°à¤¦
Ġà¤Ĺ à¤£
Ġà¤Ĺ à¤Ľ
Ġà¤¬ à¤£
Ġà¤Ĩ à¤²
Ġà¤Ĩ à¤Ļ
à¤½ à¤²
à¤½ à¤¯à¤®
à¤½ à¤·à¤¤
à¤½ à¤½à¤ª
à¤½ à¤ķà¤°
à¤ŀ à¤ķ
à¤ŀ à¤ªà¤¤
à¤ŀ à¤®à¤¨
à¤² à¤¤
à¤² à¤¨
à¤² à¤¦
à¤² à¤¹
à¤² à¤ª
à¤µà¤¤ à¤¸
à¤Ľ à¤¶
Ġà¤ı à¤¯à¤®
à¤¤à¤® à¤ª
à¤°à¤¤ à¤¸
à¤¬ à¤ķ
Ġà¤µà¤° à¤¨
Ġà¤¯à¤¦ à¤µ
Ġà¤¯à¤¦ à¤¦
Ġà¤¯à¤¦ à¤Ń
à¤¯à¤® à¤ķ
îĢ ĥ
Ġà¤ĭ à¤ŀ
Ġà¤µà¤¸ à¤¤
à¤ĸ à¤£
à¤¯à¤¸ à¤®
à¤®à¤¹ à¤¸
à¤°à¤¹ à¤°
à¤¨à¤® à¤ľ
à¤³ à¤¹à¤®
Ġà¤ħà¤¨ à¤ķ
à¤°à¤¯ à¤§
Ġà¤ľà¤¨ à¤¯à¤¤
Ġà¤ľà¤¨ à¤¯à¤¨
Ġà¤· à¤·
à¤·à¤¸ à¤®
Ġà¤°à¤¥ à¤ķ
Ġà¤īà¤ª à¤°
Ġà¤ªà¤¤ à¤¥
Ġà¤Ĭ à¤®
à¤µà¤¦ à¤°
Ġà¤Ī à¤°
Ġà¤ĵ à¤Ń
à¤¯à¤¦ à¤¨
Ġà¤ļà¤ķ à¤°
à¤®à¤µ à¤ķ
à¤ļà¤ķ à¤°
à¤¤à¤¤ à¤ķ
Ġà¤¸à¤ļ à¤§
Ġà¤¦à¤¦ à¤°
Ġà¤ħà¤Ń à¤µà¤¨
à¤°à¤Ń à¤µ
Ġà¤ħà¤ķ à¤°
à¤µà¤ļ à¤¸
à¤£à¤ķ à¤²
Ġà¤µà¤· à¤Ł
Ġ |
à¤ Ĩ
à¥Ĵ à¥°
à¤° à¤ªà¤¤
à¤° à¤µà¤®
à¤° à¤¦à¤¸
à¤° à¤§à¤¤
à¤° á³ªà¤¸
à¤° à¤ī
à¤¤ à¤¤à¤®
à¤¤ à¤°à¤¤
à¤¤ à¤Ĭ
à¤¿ à¤ģ
à¤¨ à¤²
à¤¨ à¤µà¤°
à¤µ à¤°à¤®
à¤µ à¤£à¤¸
à¤µ à¤ļà¤°
à¤µ à¤½à¤®
à¤µ á³ªà¤¹
à¤¯ à¤¯à¤¤
à¤¯ à¤¯à¤¸
à¤¯ à¤½à¤¨
à¤¯ à¤½à¤§
à¤¯ à¤½à¤¶
à¤¯ à¤½à¤¦
à¤® à¤ªà¤¤
à¤® à¤¯à¤¤
à¥ĩ à¤Ĥ
à¥ĩ à¤Ĥà¥Ĵ
à¥ĩ à¥°
à¤¸ à¤Ń
à¤¸ à¤¯à¤¤
à¤¸ à¤°à¤¨
à¤¦ à¤®à¤¸
Ġà¤¸ à¤¹à¤¤
à¤· à¤¯à¤¤
à¤· à¤ľà¤®
Ġà¤µ à¤®
Ġà¤µ à¤µà¤°
Ġà¤ª à¤ľ
Ġà¤ª à¤¤à¤¯
à¤¹ à¤®à¤¸
à¥ĥ à¤Ĥà¥Ĵ
à¤¶ à¤ª
à¤¶ à¤²
à¤¶ à¤µà¤¸
à¤ª à¤§
à¤ª à¤£
à¤ª à¤¯à¤¸
Ġà¤¤ á³ª
Ġà¤¯ à¤®à¤ª
à¤ķ à¤®à¤¨
à¤ķ à¤®à¤§
à¤ķ à¤®à¤ª
Ġà¤® à¤ļ
à¤§ à¤ķ
à¤ľ à¤ŀ
à¤ľ à¤²
à¤ľ à¤°à¤¤
à¤ľ à¤¨à¤®
Ġà¤¨ à¤®à¤¸
à¤ļ à¤§
à¤¥ à¤ķ
à¤¥ à¤®à¤µ
Ġà¤¶ à¤£
Ġà¤¶ á³ªà¤¸
Ġà¤ľ à¤¸
Ġà¤ľ à¤ĺà¤¨
Ġà¤Ń à¤ľà¤¨
Ġà¤Ĩ à¤ĺ
Ġà¤Ĩ à¤¯à¤®
à¤½ à¤½à¤¸
à¤½ à¤½à¤¯
Ġà¤§ à¤ķ
à¤ŀ à¤¤
à¤ŀ à¤¶
à¤² à¤µ
à¤² à¤Ĺ
à¤ł à¤µ
à¤¤à¤® à¤¹
à¤¤à¤® à¤Ń
à¤¬ à¤¦
à¤¬ à¤¤à¤®à¤¶
Ġà¤¯à¤¦ à¤®
Ġà¤¯à¤¦ à¤ª
Ġà¤¯à¤¦ à¤ľ
à¤®à¤¨ à¤¸
à¤¤à¤° à¤¹
à¤¯à¤® à¤¶
à¤¯à¤® à¤Ĺ
à¤µà¤¨ à¤ļ
à¤°à¤® à¤ª
à¤°à¤® à¤¹à¤¶
à¤®à¤¸ à¤¦
Ġà¤¸à¤® à¤°
à¤°à¤¹ à¤£
à¤¡ à¤¶
à¤¡ à¤²
à¤¡ à¤¯à¤¨
Ġà¤ħà¤Ĺ à¤¨
à¤°à¤¯ à¤ľ
Ġà¤ħà¤§ à¤¤
Ġà¤¯à¤ľ à¤¨
Ġà¤¯à¤ľ à¤¸
à¤¨à¤¸ à¤®
Ġà¤īà¤ª à¤¸
Ġà¤¤à¤¦ à¤¨
Ġà¤Ĭ à¤¬
à¤®à¤¦ à¤µ
à¤®à¤¦ à¤¦
Ġà¤¤à¤® à¤ª
Ġà¤¤à¤¤ à¤ķ
Ġà¤Ī à¤¯
Ġà¤Ī à¤·
Ġà¤Ī à¤ķ
Ġà¤Ī à¤§
à¤§à¤¸ à¤®
à¤°à¤¶ à¤¤
à¤®à¤° à¤ķ
à¤¯à¤ľ à¤¤
Ġà¤½ à¤¤
Ġà¤½ à¤ľ
Ġà¤½ à¤½
à¤¤à¤¦ à¤ķ
Ġà¤Ńà¤Ĺ à¤µ
Ġà¤ľà¤Ĺ à¤®
à¤°à¤Ń à¤®
Ġà¤ªà¤¨ à¤¯à¤¨
Ġà¤ħà¤ľ à¤°
Ġà¤ĭà¤¤ à¤ľ
à¤¯à¤½ à¤¦à¤§
à¤ħ à¤Ļ
à¤ĭ à¤·
à¥ł à¤¤
à¥ł à¤ķ
Ġà¤®à¤ĺà¤µ à¤ŀ
à¥Ģà¤ģ à¥ĳ
Ġà¤Ķ à¤ķ
à¥Ĵ à¥Ĵ
à¥ĳ îĢĥ
à¤° à¤²
à¤° à¤ľà¤¨
à¤° à¤ļà¤ķ
à¤° à¤ķà¤°
à¤° à¤ķà¤°à¤£à¤®
à¤¤ à¤µà¤¤
à¤¤ à¤¦à¤¤
à¤¿ à¤ģà¥ĳ
à¤¨ à¤ŀ
à¤¨ à¤ªà¤¤
à¤¨ à¤¬
à¤¨ à¤µà¤¨
à¤¨ à¤¡
à¤µ à¤ľà¤¨
à¤µ à¤ľà¤¸
à¤¯ à¤½à¤Ĺ
à¤® à¤µà¤¤
à¤® à¤®à¤¨
à¤® à¤µà¤¨
à¤® à¤®à¤¤
à¤® à¤°à¤¨
à¤¸ à¤¬
à¤¸ à¤µà¤¸
à¤¸ à¤ªà¤°
à¥ĭ à¤Ĥà¥Ĵ
à¤¦ à¤ĺ
à¤¦ à¤¨à¤®
à¤¦ à¤®à¤°
à¤· à¤ŀ
à¤· à¤Ļ
à¤· à¤¯à¤¸
Ġà¤µ à¤¤
Ġà¤µ à¤°à¤¤
Ġà¤ª à¤·
Ġà¤ª à¤£
Ġà¤ª à¤£à¤¯
à¤¹ à¤²
à¤¹ à¤¯à¤¦
à¤¹ à¤£à¤®
à¤¶ à¤¥
à¤¶ à¤¦à¤¸
à¤ª à¤Ĺ
à¤ª à¤®à¤¨
à¤ª à¤µà¤¨
à¤ª à¤¨à¤®
Ġà¤¯ à¤·
Ġà¤¯ à¤µà¤¯
Ġà¤¯ à¤®à¤µ
Ġà¤¯ à¤µà¤®à¤§
à¤ķ à¤°à¤®
à¤ķ à¤®à¤µ
à¤ķ à¤®à¤Ĺ
Ġà¤® à¤®à¤¤
Ġà¤® á³ªà¤¹
à¤§ à¤®à¤¦
à¤§ à¤®à¤ª
Ġà¤¦ à¤¯à¤¸
Ġà¤¦ à¤¹à¤¤
à¤£ à¤ľ
à¤£ à¤Ļ
Ġà¤ħ à¤®à¤¨
Ġà¤ħ à¤µà¤¨
Ġà¤ħ à¤®à¤¦
Ġà¤¨ à¤Ĺ
Ġà¤¨ à¤¯à¤¸
Ġà¤¨ à¤¶à¤¤
à¤ļ à¤¤à¤®
à¤ļ à¤¯à¤¤
à¤ļ à¤ļà¤ķ
à¥Ĥ à¤ĥà¥Ĵ
à¤Ĺ à¤¸à¤®
à¤¥ à¤ª
à¤¥ à¤¥
Ġà¤ķ à¤¬
Ġà¤ķ à¤Ļ
Ġà¤¶ à¤²
Ġà¤¶ à¤¤à¤®
Ġà¤¶ à¤®à¤¹
Ġà¤° à¤ľà¤¯
Ġà¤ļ à¤·
Ġà¤ĩ à¤¹
Ġà¤ĩ à¤¦à¤¨
Ġà¤Ń à¤¯à¤¨
Ġà¤¬ à¤¡
Ġà¤Ĩ à¤ĸ
Ġà¤Ĩ à¤½à¤µ
à¤½ à¤ľà¤¨
à¤½ à¤½à¤¨
à¤½ à¤ªà¤¸
à¤½ à¤½à¤Ĺ
à¤½ à¤ī
à¤½ à¤µà¤¦à¤¨
à¤Ł à¤®à¤¸
à¤Ł à¤ªà¤¦
à¤ŀ à¤®à¤¤
à¤ŀ à¤®à¤¯
Ġà¤ªà¤° à¤¸
à¤Ľ à¤®à¤¨
à¤Ľ à¤¦à¤µ
à¤ł à¤¥
à¤ł à¤®à¤§
Ġà¤ı à¤°
Ġà¤ı à¤£
Ġà¤ı à¤Ń
à¤¤à¤® à¤¥
à¤¤à¤® à¤¬
à¤ªà¤¤ à¤¤
à¤¬ à¤¯
à¤¬ à¤¬
à¤ĺ à¤¨à¤¦
à¤®à¤¨ à¤µ
à¤¤à¤° à¤¨
à¤¤à¤° à¤µ
à¤¤à¤° à¤¸
à¤¤à¤° à¤¶
à¤¤à¤° à¤£à¤®
à¤¯à¤® à¤¤
à¤¯à¤® à¤¦
à¤¯à¤® à¤Ń
à¤µà¤¨ à¤¸
à¤°à¤® à¤Ĺ
Ġà¤ĭ à¤¦
à¤µà¤° à¤°
à¤ĸ à¤°
à¤ĸ à¤¤
à¤¤à¤¯ à¤¦
à¤µà¤® à¤°
à¤µà¤® à¤¤
à¤µà¤® à¤¦
Ġà¤¯à¤¤ à¤¨
à¤°à¤µ à¤¯à¤¤
á³ª à¤¸à¤®
à¤¨à¤® à¤·
à¤¨à¤® à¤ķ
à¤¨à¤® à¤Ń
à¤®à¤¤ à¤ķ
à¤¡ à¤¨
à¤³ à¤¨
Ġà¤ħà¤¨ à¤µ
à¤°à¤¯ à¤¦
à¤°à¤¯ à¤¥
Ġà¤ľà¤¨ à¤¤
Ġà¤ľà¤¨ à¤¯
Ġà¤¯à¤ľ à¤§
Ġà¤· à¤¸
Ġà¤· à¤¦à¤ª
à¤ľà¤¨ à¤¯à¤¤
Ġà¤°à¤¥ à¤¸
à¤¨à¤¸ à¤¸
Ġà¤¤à¤¦ à¤ª
Ġà¤ªà¤¤ à¤¨
Ġà¤Ĭ à¤µ
à¤µà¤¦ à¤¸
à¤°à¤¥ à¤¯
à¤®à¤¦ à¤®
à¤®à¤¦ à¤¸
à¤®à¤¦ à¤ª
à¤®à¤¦ à¤Ĺ
Ġà¤² à¤²
Ġà¤Ī à¤®
Ġà¤Ī à¤ľ
Ġà¤ĵ à¤¦
Ġà¤ĵ à¤¹à¤¸
Ġà¤ĵ à¤·à¤¤
à¤¯à¤¦ à¤¹
à¤§à¤¯ à¤¶
à¤®à¤® à¤§
à¤¦à¤¯ à¤¥
à¤£à¤¸ à¤®
à¤°à¤¶ à¤¸
Ġà¤ħà¤¦ à¤°
à¤½à¤µ à¤§
Ġà¤§à¤¨ à¤ªà¤¤
à¤®à¤Ĺ à¤µ
Ġà¤½ à¤ļ
Ġà¤½ à¤½à¤¨
Ġà¤½ à¤½à¤¯
à¤£à¤® à¤ķ
Ġà¤Ńà¤µ à¤¥
à¤®à¤§ à¤¤
Ġà¤Ĩà¤ª à¤ª
Ġà¤¸à¤ļ à¤¸
Ġà¤¦à¤¦ à¤¦
Ġà¤ªà¤¶ à¤µ
Ġà¤¹à¤¨ à¤¤
Ġà¤Ĩà¤¦ à¤¹
à¤¯à¤ª à¤ķ
à¥Ħ à¤Ĥ
à¥Ħ à¤ģ
à¤°à¤Ń à¤µà¤¦
à¤« à¤°
à¤« à¤²
à¤°à¤§ à¤®
à¤¦à¤¦ à¤Ń
Ġà¤ħà¤ľ à¤Ĺ
à¤°à¤ķ à¤²
à¤¨à¤¶ à¤®
Ġà¤¸à¤¹à¤¸ à¤¸
à¤¯à¤½ à¤ŀ
à¤¯à¤½ à¤Ļ
à¤¯à¤½ à¤ĸ
Ġà¤Ĳ à¤²
à¤¯à¤½à¤ļà¤² à¤¦
Ġà¤Ķ à¤°
Ġà¤¸á³ª à¤°à¤°
à¤½à¤½ à¤Ľ
à¤ªà¤µà¤¸ à¤¨
à¤°à¤ī à¤·
Ġ á³ªà¤·
à¤ ¼
à¥Ĵ à¥ĳ
à¤° à¤µà¤¨
à¤° á³ªà¤¹
à¤¤ à¤£
à¤¤ à¤µà¤¸
à¤¤ à¤Ļ
